{
    "0": "!",
    "1": "\"",
    "2": "#",
    "3": "$",
    "4": "%",
    "5": "&",
    "6": "'",
    "7": "(",
    "8": ")",
    "9": "*",
    "10": "+",
    "11": ",",
    "12": "-",
    "13": ".",
    "14": "/",
    "15": "0",
    "16": "1",
    "17": "2",
    "18": "3",
    "19": "4",
    "20": "5",
    "21": "6",
    "22": "7",
    "23": "8",
    "24": "9",
    "25": ":",
    "26": ";",
    "27": "<",
    "28": "=",
    "29": ">",
    "30": "?",
    "31": "@",
    "32": "A",
    "33": "B",
    "34": "C",
    "35": "D",
    "36": "E",
    "37": "F",
    "38": "G",
    "39": "H",
    "40": "I",
    "41": "J",
    "42": "K",
    "43": "L",
    "44": "M",
    "45": "N",
    "46": "O",
    "47": "P",
    "48": "Q",
    "49": "R",
    "50": "S",
    "51": "T",
    "52": "U",
    "53": "V",
    "54": "W",
    "55": "X",
    "56": "Y",
    "57": "Z",
    "58": "[",
    "59": "\\",
    "60": "]",
    "61": "^",
    "62": "_",
    "63": "`",
    "64": "a",
    "65": "b",
    "66": "c",
    "67": "d",
    "68": "e",
    "69": "f",
    "70": "g",
    "71": "h",
    "72": "i",
    "73": "j",
    "74": "k",
    "75": "l",
    "76": "m",
    "77": "n",
    "78": "o",
    "79": "p",
    "80": "q",
    "81": "r",
    "82": "s",
    "83": "t",
    "84": "u",
    "85": "v",
    "86": "w",
    "87": "x",
    "88": "y",
    "89": "z",
    "90": "{",
    "91": "|",
    "92": "}",
    "93": "~",
    "94": "b'\\xa1'",
    "95": "b'\\xa2'",
    "96": "b'\\xa3'",
    "97": "b'\\xa4'",
    "98": "b'\\xa5'",
    "99": "b'\\xa6'",
    "100": "b'\\xa7'",
    "101": "b'\\xa8'",
    "102": "b'\\xa9'",
    "103": "b'\\xaa'",
    "104": "b'\\xab'",
    "105": "b'\\xac'",
    "106": "b'\\xae'",
    "107": "b'\\xaf'",
    "108": "b'\\xb0'",
    "109": "b'\\xb1'",
    "110": "b'\\xb2'",
    "111": "b'\\xb3'",
    "112": "b'\\xb4'",
    "113": "b'\\xb5'",
    "114": "b'\\xb6'",
    "115": "b'\\xb7'",
    "116": "b'\\xb8'",
    "117": "b'\\xb9'",
    "118": "b'\\xba'",
    "119": "b'\\xbb'",
    "120": "b'\\xbc'",
    "121": "b'\\xbd'",
    "122": "b'\\xbe'",
    "123": "b'\\xbf'",
    "124": "b'\\xc0'",
    "125": "b'\\xc1'",
    "126": "b'\\xc2'",
    "127": "b'\\xc3'",
    "128": "b'\\xc4'",
    "129": "b'\\xc5'",
    "130": "b'\\xc6'",
    "131": "b'\\xc7'",
    "132": "b'\\xc8'",
    "133": "b'\\xc9'",
    "134": "b'\\xca'",
    "135": "b'\\xcb'",
    "136": "b'\\xcc'",
    "137": "b'\\xcd'",
    "138": "b'\\xce'",
    "139": "b'\\xcf'",
    "140": "b'\\xd0'",
    "141": "b'\\xd1'",
    "142": "b'\\xd2'",
    "143": "b'\\xd3'",
    "144": "b'\\xd4'",
    "145": "b'\\xd5'",
    "146": "b'\\xd6'",
    "147": "b'\\xd7'",
    "148": "b'\\xd8'",
    "149": "b'\\xd9'",
    "150": "b'\\xda'",
    "151": "b'\\xdb'",
    "152": "b'\\xdc'",
    "153": "b'\\xdd'",
    "154": "b'\\xde'",
    "155": "b'\\xdf'",
    "156": "b'\\xe0'",
    "157": "b'\\xe1'",
    "158": "b'\\xe2'",
    "159": "b'\\xe3'",
    "160": "b'\\xe4'",
    "161": "b'\\xe5'",
    "162": "b'\\xe6'",
    "163": "b'\\xe7'",
    "164": "b'\\xe8'",
    "165": "b'\\xe9'",
    "166": "b'\\xea'",
    "167": "b'\\xeb'",
    "168": "b'\\xec'",
    "169": "b'\\xed'",
    "170": "b'\\xee'",
    "171": "b'\\xef'",
    "172": "b'\\xf0'",
    "173": "b'\\xf1'",
    "174": "b'\\xf2'",
    "175": "b'\\xf3'",
    "176": "b'\\xf4'",
    "177": "b'\\xf5'",
    "178": "b'\\xf6'",
    "179": "b'\\xf7'",
    "180": "b'\\xf8'",
    "181": "b'\\xf9'",
    "182": "b'\\xfa'",
    "183": "b'\\xfb'",
    "184": "b'\\xfc'",
    "185": "b'\\xfd'",
    "186": "b'\\xfe'",
    "187": "b'\\xff'",
    "188": "\u0000",
    "189": "\u0001",
    "190": "\u0002",
    "191": "\u0003",
    "192": "\u0004",
    "193": "\u0005",
    "194": "\u0006",
    "195": "\u0007",
    "196": "\b",
    "197": "\t",
    "198": "\n",
    "199": "\u000b",
    "200": "\f",
    "201": "\r",
    "202": "\u000e",
    "203": "\u000f",
    "204": "\u0010",
    "205": "\u0011",
    "206": "\u0012",
    "207": "\u0013",
    "208": "\u0014",
    "209": "\u0015",
    "210": "\u0016",
    "211": "\u0017",
    "212": "\u0018",
    "213": "\u0019",
    "214": "\u001a",
    "215": "\u001b",
    "216": "\u001c",
    "217": "\u001d",
    "218": "\u001e",
    "219": "\u001f",
    "220": " ",
    "221": "\u007f",
    "222": "b'\\x80'",
    "223": "b'\\x81'",
    "224": "b'\\x82'",
    "225": "b'\\x83'",
    "226": "b'\\x84'",
    "227": "b'\\x85'",
    "228": "b'\\x86'",
    "229": "b'\\x87'",
    "230": "b'\\x88'",
    "231": "b'\\x89'",
    "232": "b'\\x8a'",
    "233": "b'\\x8b'",
    "234": "b'\\x8c'",
    "235": "b'\\x8d'",
    "236": "b'\\x8e'",
    "237": "b'\\x8f'",
    "238": "b'\\x90'",
    "239": "b'\\x91'",
    "240": "b'\\x92'",
    "241": "b'\\x93'",
    "242": "b'\\x94'",
    "243": "b'\\x95'",
    "244": "b'\\x96'",
    "245": "b'\\x97'",
    "246": "b'\\x98'",
    "247": "b'\\x99'",
    "248": "b'\\x9a'",
    "249": "b'\\x9b'",
    "250": "b'\\x9c'",
    "251": "b'\\x9d'",
    "252": "b'\\x9e'",
    "253": "b'\\x9f'",
    "254": "b'\\xa0'",
    "255": "b'\\xad'",
    "256": "  ",
    "257": "    ",
    "258": "in",
    "259": " t",
    "260": "        ",
    "261": "er",
    "262": "   ",
    "263": "on",
    "264": " a",
    "265": "re",
    "266": "at",
    "267": "st",
    "268": "en",
    "269": "or",
    "270": " th",
    "271": "\n\n",
    "272": " c",
    "273": "le",
    "274": " s",
    "275": "it",
    "276": "an",
    "277": "ar",
    "278": "al",
    "279": " the",
    "280": ";\n",
    "281": " p",
    "282": " f",
    "283": "ou",
    "284": " =",
    "285": "is",
    "286": "       ",
    "287": "ing",
    "288": "es",
    "289": " w",
    "290": "ion",
    "291": "ed",
    "292": "ic",
    "293": " b",
    "294": " d",
    "295": "et",
    "296": " m",
    "297": " o",
    "298": "\t\t",
    "299": "ro",
    "300": "as",
    "301": "el",
    "302": "ct",
    "303": "nd",
    "304": " in",
    "305": " h",
    "306": "ent",
    "307": "id",
    "308": " n",
    "309": "am",
    "310": "           ",
    "311": " to",
    "312": " re",
    "313": "--",
    "314": " {",
    "315": " of",
    "316": "om",
    "317": ");\n",
    "318": "im",
    "319": "\r\n",
    "320": " (",
    "321": "il",
    "322": "//",
    "323": " and",
    "324": "ur",
    "325": "se",
    "326": " l",
    "327": "ex",
    "328": " S",
    "329": "ad",
    "330": " \"",
    "331": "ch",
    "332": "ut",
    "333": "if",
    "334": "**",
    "335": " }",
    "336": "em",
    "337": "ol",
    "338": "                ",
    "339": "th",
    "340": ")\n",
    "341": " {\n",
    "342": " g",
    "343": "ig",
    "344": "iv",
    "345": ",\n",
    "346": "ce",
    "347": "od",
    "348": " v",
    "349": "ate",
    "350": " T",
    "351": "ag",
    "352": "ay",
    "353": " *",
    "354": "ot",
    "355": "us",
    "356": " C",
    "357": " st",
    "358": " I",
    "359": "un",
    "360": "ul",
    "361": "ue",
    "362": " A",
    "363": "ow",
    "364": " '",
    "365": "ew",
    "366": " <",
    "367": "ation",
    "368": "()",
    "369": " for",
    "370": "ab",
    "371": "ort",
    "372": "um",
    "373": "ame",
    "374": " is",
    "375": "pe",
    "376": "tr",
    "377": "ck",
    "378": "b'\\xe2\\x80'",
    "379": " y",
    "380": "ist",
    "381": "----",
    "382": ".\n\n",
    "383": "he",
    "384": " e",
    "385": "lo",
    "386": " M",
    "387": " be",
    "388": "ers",
    "389": " on",
    "390": " con",
    "391": "ap",
    "392": "ub",
    "393": " P",
    "394": "               ",
    "395": "ass",
    "396": "int",
    "397": ">\n",
    "398": "ly",
    "399": "urn",
    "400": " $",
    "401": ";\n\n",
    "402": "av",
    "403": "port",
    "404": "ir",
    "405": "->",
    "406": "nt",
    "407": "ction",
    "408": "end",
    "409": " de",
    "410": "00",
    "411": "ith",
    "412": "out",
    "413": "turn",
    "414": "our",
    "415": "     ",
    "416": "lic",
    "417": "res",
    "418": "pt",
    "419": "==",
    "420": " this",
    "421": " wh",
    "422": " if",
    "423": " D",
    "424": "ver",
    "425": "age",
    "426": " B",
    "427": "ht",
    "428": "ext",
    "429": "=\"",
    "430": " that",
    "431": "****",
    "432": " R",
    "433": " it",
    "434": "ess",
    "435": " F",
    "436": " r",
    "437": "os",
    "438": "and",
    "439": " as",
    "440": "ect",
    "441": "ke",
    "442": "rom",
    "443": " //",
    "444": "con",
    "445": " L",
    "446": "(\"",
    "447": "qu",
    "448": "lass",
    "449": " with",
    "450": "iz",
    "451": "de",
    "452": " N",
    "453": " al",
    "454": "op",
    "455": "up",
    "456": "get",
    "457": " }\n",
    "458": "ile",
    "459": " an",
    "460": "ata",
    "461": "ore",
    "462": "ri",
    "463": " pro",
    "464": ";\r\n",
    "465": "\t\t\t\t",
    "466": "ter",
    "467": "ain",
    "468": " W",
    "469": " E",
    "470": " com",
    "471": " return",
    "472": "art",
    "473": " H",
    "474": "ack",
    "475": "import",
    "476": "ublic",
    "477": " or",
    "478": "est",
    "479": "ment",
    "480": " G",
    "481": "able",
    "482": " -",
    "483": "ine",
    "484": "ill",
    "485": "ind",
    "486": "ere",
    "487": "::",
    "488": "ity",
    "489": " +",
    "490": " tr",
    "491": "elf",
    "492": "ight",
    "493": "('",
    "494": "orm",
    "495": "ult",
    "496": "str",
    "497": "..",
    "498": "\",",
    "499": " you",
    "500": "ype",
    "501": "pl",
    "502": " new",
    "503": " j",
    "504": "                   ",
    "505": " from",
    "506": " ex",
    "507": " O",
    "508": "20",
    "509": "ld",
    "510": " [",
    "511": "oc",
    "512": ":\n",
    "513": " se",
    "514": " le",
    "515": "--------",
    "516": ".s",
    "517": "{\n",
    "518": "',",
    "519": "ant",
    "520": " at",
    "521": "ase",
    "522": ".c",
    "523": " ch",
    "524": "</",
    "525": "ave",
    "526": "ang",
    "527": " are",
    "528": " int",
    "529": "\u2019",
    "530": "_t",
    "531": "ert",
    "532": "ial",
    "533": "act",
    "534": "}\n",
    "535": "ive",
    "536": "ode",
    "537": "ost",
    "538": " class",
    "539": " not",
    "540": "og",
    "541": "ord",
    "542": "alue",
    "543": "all",
    "544": "ff",
    "545": "();\n",
    "546": "ont",
    "547": "ime",
    "548": "are",
    "549": " U",
    "550": " pr",
    "551": " :",
    "552": "ies",
    "553": "ize",
    "554": "ure",
    "555": " by",
    "556": "ire",
    "557": " }\n\n",
    "558": ".p",
    "559": " sh",
    "560": "ice",
    "561": "ast",
    "562": "ption",
    "563": "tring",
    "564": "ok",
    "565": "__",
    "566": "cl",
    "567": "##",
    "568": " he",
    "569": "ard",
    "570": ").",
    "571": " @",
    "572": "iew",
    "573": "\t\t\t",
    "574": " was",
    "575": "ip",
    "576": "this",
    "577": " u",
    "578": " The",
    "579": "ide",
    "580": "ace",
    "581": "ib",
    "582": "ac",
    "583": "rou",
    "584": " we",
    "585": "ject",
    "586": " public",
    "587": "ak",
    "588": "ve",
    "589": "ath",
    "590": "oid",
    "591": " =>",
    "592": "ust",
    "593": "que",
    "594": " res",
    "595": "))",
    "596": "'s",
    "597": " k",
    "598": "ans",
    "599": "yst",
    "600": "unction",
    "601": "********",
    "602": " i",
    "603": " us",
    "604": "pp",
    "605": "10",
    "606": "one",
    "607": "ail",
    "608": "====",
    "609": "name",
    "610": " str",
    "611": " /",
    "612": " &",
    "613": "ach",
    "614": "div",
    "615": "ystem",
    "616": "ell",
    "617": " have",
    "618": "err",
    "619": "ould",
    "620": "ull",
    "621": "pon",
    "622": " J",
    "623": "_p",
    "624": " ==",
    "625": "ign",
    "626": "St",
    "627": ".\n",
    "628": " pl",
    "629": ");\n\n",
    "630": "form",
    "631": "put",
    "632": "ount",
    "633": "}\n\n",
    "634": "dd",
    "635": "ite",
    "636": " get",
    "637": "rr",
    "638": "ome",
    "639": "b' \\xe2\\x80'",
    "640": "aram",
    "641": "cc",
    "642": " */",
    "643": "ER",
    "644": "In",
    "645": "les",
    "646": "_s",
    "647": "ong",
    "648": "ie",
    "649": " can",
    "650": " V",
    "651": "erv",
    "652": "pr",
    "653": " un",
    "654": "row",
    "655": "ber",
    "656": " do",
    "657": "ll",
    "658": " el",
    "659": " self",
    "660": "ated",
    "661": "ary",
    "662": " .",
    "663": "']",
    "664": "ud",
    "665": " en",
    "666": " Th",
    "667": "                       ",
    "668": "te",
    "669": "_c",
    "670": "uct",
    "671": " ab",
    "672": "ork",
    "673": ".get",
    "674": " #",
    "675": "aw",
    "676": "ress",
    "677": "ob",
    "678": "Name",
    "679": "201",
    "680": "app",
    "681": "['",
    "682": " all",
    "683": "ory",
    "684": "ition",
    "685": "ance",
    "686": "ear",
    "687": " cont",
    "688": "vent",
    "689": "ia",
    "690": " will",
    "691": "IN",
    "692": "         ",
    "693": "return",
    "694": " </",
    "695": "data",
    "696": ")\n\n",
    "697": "Re",
    "698": "ple",
    "699": "ild",
    "700": "ther",
    "701": " your",
    "702": "\"\n",
    "703": "($",
    "704": " out",
    "705": "),",
    "706": " has",
    "707": "String",
    "708": "so",
    "709": " up",
    "710": "ax",
    "711": " def",
    "712": " bo",
    "713": "ge",
    "714": "alse",
    "715": "ON",
    "716": "per",
    "717": "12",
    "718": "ich",
    "719": " but",
    "720": " \n",
    "721": " _",
    "722": "_m",
    "723": "add",
    "724": "quest",
    "725": "odel",
    "726": "self",
    "727": "ery",
    "728": "ft",
    "729": "ens",
    "730": "////",
    "731": "ake",
    "732": ".C",
    "733": " go",
    "734": " function",
    "735": " K",
    "736": "ivate",
    "737": " im",
    "738": " const",
    "739": ".t",
    "740": " */\n",
    "741": ");\r\n",
    "742": " void",
    "743": " set",
    "744": " System",
    "745": "cri",
    "746": "()\n",
    "747": "li",
    "748": "\tif",
    "749": ".m",
    "750": "ally",
    "751": "set",
    "752": "ep",
    "753": "\u2019s",
    "754": "bo",
    "755": "def",
    "756": "',\n",
    "757": " me",
    "758": " !",
    "759": "atch",
    "760": "\">",
    "761": "\",\n",
    "762": "ec",
    "763": " In",
    "764": "ph",
    "765": " |",
    "766": "_f",
    "767": " var",
    "768": "ence",
    "769": "Id",
    "770": "ree",
    "771": "ink",
    "772": "lect",
    "773": "ug",
    "774": "eth",
    "775": " else",
    "776": "----------------",
    "777": "19",
    "778": "cont",
    "779": " so",
    "780": "atic",
    "781": " lo",
    "782": "pro",
    "783": "ton",
    "784": "ss",
    "785": "own",
    "786": "abel",
    "787": "oint",
    "788": "ous",
    "789": "eld",
    "790": "ST",
    "791": "The",
    "792": "                                ",
    "793": "RE",
    "794": "\":",
    "795": "olor",
    "796": "tp",
    "797": "eg",
    "798": "key",
    "799": "ude",
    "800": " St",
    "801": "ound",
    "802": " ar",
    "803": "\");\n",
    "804": "ener",
    "805": "ser",
    "806": "11",
    "807": "bject",
    "808": "essage",
    "809": "fer",
    "810": " more",
    "811": "ations",
    "812": "ents",
    "813": " his",
    "814": " they",
    "815": ".S",
    "816": " Y",
    "817": "use",
    "818": "ne",
    "819": "ish",
    "820": "old",
    "821": "_d",
    "822": "io",
    "823": "ield",
    "824": " per",
    "825": "Cont",
    "826": "ings",
    "827": "####",
    "828": " data",
    "829": " sa",
    "830": "ef",
    "831": "fo",
    "832": " one",
    "833": "eng",
    "834": " dis",
    "835": "AT",
    "836": " name",
    "837": " true",
    "838": "val",
    "839": "led",
    "840": ".f",
    "841": " ne",
    "842": " end",
    "843": "32",
    "844": ".T",
    "845": "16",
    "846": "cre",
    "847": "ark",
    "848": "log",
    "849": "Ex",
    "850": "error",
    "851": "_id",
    "852": "urre",
    "853": "ange",
    "854": " null",
    "855": "rray",
    "856": " my",
    "857": "pan",
    "858": "ict",
    "859": "ator",
    "860": "View",
    "861": "List",
    "862": "\treturn",
    "863": "\u201d",
    "864": " pre",
    "865": " x",
    "866": "clude",
    "867": "arg",
    "868": "15",
    "869": "ov",
    "870": ".h",
    "871": " >",
    "872": " their",
    "873": "')",
    "874": "irst",
    "875": "ick",
    "876": "gh",
    "877": "LE",
    "878": "OR",
    "879": " private",
    "880": "tem",
    "881": "\r\n\r\n",
    "882": "user",
    "883": " )",
    "884": "com",
    "885": ".A",
    "886": "\";\n",
    "887": " id",
    "888": "read",
    "889": " who",
    "890": "_b",
    "891": "\">\n",
    "892": " time",
    "893": " man",
    "894": "ry",
    "895": "========",
    "896": "roup",
    "897": "rop",
    "898": "public",
    "899": "vel",
    "900": "umber",
    "901": "ble",
    "902": " which",
    "903": "****************",
    "904": " any",
    "905": " false",
    "906": "we",
    "907": " value",
    "908": " li",
    "909": "\")",
    "910": "nder",
    "911": "gr",
    "912": " no",
    "913": "param",
    "914": "25",
    "915": "fig",
    "916": ".com",
    "917": " app",
    "918": "_l",
    "919": "ions",
    "920": ".D",
    "921": " Ch",
    "922": " about",
    "923": " add",
    "924": " su",
    "925": " string",
    "926": "ID",
    "927": " over",
    "928": "string",
    "929": ".l",
    "930": "ource",
    "931": "000",
    "932": "_C",
    "933": "]\n",
    "934": " qu",
    "935": " String",
    "936": "ca",
    "937": "SE",
    "938": " ro",
    "939": "sh",
    "940": "ual",
    "941": "Type",
    "942": "son",
    "943": "new",
    "944": "ern",
    "945": " ag",
    "946": "AR",
    "947": "];\n",
    "948": "].",
    "949": " ?",
    "950": "ical",
    "951": " des",
    "952": "uth",
    "953": "ix",
    "954": "ays",
    "955": " type",
    "956": "'t",
    "957": "ault",
    "958": " inter",
    "959": "var",
    "960": ".b",
    "961": " part",
    "962": ".d",
    "963": "urrent",
    "964": "IT",
    "965": "EN",
    "966": "30",
    "967": "enc",
    "968": "(f",
    "969": "ra",
    "970": "value",
    "971": "cho",
    "972": "18",
    "973": "utton",
    "974": "ose",
    "975": "14",
    "976": " !=",
    "977": "ater",
    "978": "\u00e9",
    "979": "reate",
    "980": "oll",
    "981": "pos",
    "982": "yle",
    "983": "ng",
    "984": "AL",
    "985": "using",
    "986": "ames",
    "987": " {\r\n",
    "988": "ates",
    "989": "ely",
    "990": " work",
    "991": " em",
    "992": "inal",
    "993": " sp",
    "994": " when",
    "995": ".set",
    "996": "      ",
    "997": "):\n",
    "998": "to",
    "999": "quire",
    "1000": "indow",
    "1001": "lement",
    "1002": "pect",
    "1003": "ash",
    "1004": "[i",
    "1005": " use",
    "1006": ".F",
    "1007": "pec",
    "1008": " ad",
    "1009": "ove",
    "1010": "ception",
    "1011": "ength",
    "1012": "include",
    "1013": "ader",
    "1014": "                           ",
    "1015": "atus",
    "1016": "Th",
    "1017": "itle",
    "1018": "rit",
    "1019": "void",
    "1020": "().",
    "1021": "(\n",
    "1022": " off",
    "1023": " other",
    "1024": " &&",
    "1025": "';\n",
    "1026": "ms",
    "1027": " been",
    "1028": " te",
    "1029": "ml",
    "1030": "co",
    "1031": "nc",
    "1032": "13",
    "1033": "ervice",
    "1034": " %",
    "1035": "**\n",
    "1036": "ann",
    "1037": "ade",
    "1038": "\n\n\n\n",
    "1039": "lock",
    "1040": "const",
    "1041": "100",
    "1042": "ponse",
    "1043": " sup",
    "1044": "++",
    "1045": "date",
    "1046": " acc",
    "1047": " had",
    "1048": " bu",
    "1049": "200",
    "1050": " Re",
    "1051": " were",
    "1052": " file",
    "1053": " would",
    "1054": " \u201c",
    "1055": "ven",
    "1056": "iss",
    "1057": " our",
    "1058": "class",
    "1059": "raw",
    "1060": " year",
    "1061": "Data",
    "1062": " val",
    "1063": " some",
    "1064": "fter",
    "1065": "ys",
    "1066": " ///",
    "1067": "round",
    "1068": "view",
    "1069": " pe",
    "1070": " there",
    "1071": " said",
    "1072": "du",
    "1073": "of",
    "1074": "line",
    "1075": "/*",
    "1076": "duct",
    "1077": " her",
    "1078": "             ",
    "1079": "Res",
    "1080": " co",
    "1081": " comm",
    "1082": "ise",
    "1083": "min",
    "1084": "    \n",
    "1085": "#include",
    "1086": "ethod",
    "1087": ".P",
    "1088": "ute",
    "1089": " ass",
    "1090": "Int",
    "1091": "ask",
    "1092": "loc",
    "1093": " like",
    "1094": "ody",
    "1095": " let",
    "1096": "load",
    "1097": " am",
    "1098": "rol",
    "1099": " gr",
    "1100": "yp",
    "1101": " also",
    "1102": " It",
    "1103": "url",
    "1104": "ific",
    "1105": "ors",
    "1106": "_P",
    "1107": "_n",
    "1108": "igh",
    "1109": " than",
    "1110": "Com",
    "1111": "AN",
    "1112": "UL",
    "1113": "ating",
    "1114": "17",
    "1115": " This",
    "1116": "ref",
    "1117": "_S",
    "1118": " static",
    "1119": "roll",
    "1120": " just",
    "1121": " result",
    "1122": "ian",
    "1123": "idth",
    "1124": " them",
    "1125": "));\n",
    "1126": "der",
    "1127": "reak",
    "1128": "Con",
    "1129": "://",
    "1130": "ule",
    "1131": "...",
    "1132": "arch",
    "1133": "ement",
    "1134": " <<",
    "1135": "50",
    "1136": "ush",
    "1137": "ense",
    "1138": "arr",
    "1139": " into",
    "1140": "cess",
    "1141": "amp",
    "1142": "ied",
    "1143": "ument",
    "1144": " \\",
    "1145": "],",
    "1146": "wo",
    "1147": "als",
    "1148": " what",
    "1149": "anc",
    "1150": "Value",
    "1151": "='",
    "1152": "olum",
    "1153": " pos",
    "1154": "ages",
    "1155": "ayer",
    "1156": " sc",
    "1157": "ues",
    "1158": "\")\n",
    "1159": "_T",
    "1160": " list",
    "1161": "(s",
    "1162": " case",
    "1163": "Ch",
    "1164": "\t\t\t\t\t",
    "1165": "////////",
    "1166": "ponent",
    "1167": " z",
    "1168": " kn",
    "1169": "let",
    "1170": "DE",
    "1171": "red",
    "1172": " fe",
    "1173": " },\n",
    "1174": " ,",
    "1175": "(t",
    "1176": " first",
    "1177": "');\n",
    "1178": "word",
    "1179": " import",
    "1180": " act",
    "1181": " char",
    "1182": "CT",
    "1183": " Tr",
    "1184": "ople",
    "1185": "={",
    "1186": "\tf",
    "1187": "24",
    "1188": "ient",
    "1189": "cent",
    "1190": ".j",
    "1191": "lection",
    "1192": "))\n",
    "1193": " only",
    "1194": " print",
    "1195": "mer",
    "1196": ".W",
    "1197": "ock",
    "1198": " --",
    "1199": "Text",
    "1200": " op",
    "1201": "ank",
    "1202": " its",
    "1203": " back",
    "1204": "[\"",
    "1205": " need",
    "1206": " cl",
    "1207": " sub",
    "1208": " la",
    "1209": "((",
    "1210": ".\"",
    "1211": "Object",
    "1212": " start",
    "1213": "file",
    "1214": "(self",
    "1215": "ner",
    "1216": "ey",
    "1217": " user",
    "1218": " ent",
    "1219": " Com",
    "1220": "its",
    "1221": " Con",
    "1222": "ouble",
    "1223": "ower",
    "1224": "item",
    "1225": "very",
    "1226": " We",
    "1227": "64",
    "1228": "lick",
    "1229": " Q",
    "1230": "php",
    "1231": "ttp",
    "1232": "':",
    "1233": "ics",
    "1234": " under",
    "1235": " *\n",
    "1236": ".L",
    "1237": ");",
    "1238": "ices",
    "1239": " reg",
    "1240": ")\r\n",
    "1241": "\tpublic",
    "1242": "SS",
    "1243": " then",
    "1244": "reat",
    "1245": "ious",
    "1246": ".G",
    "1247": "ek",
    "1248": "irect",
    "1249": "heck",
    "1250": "cript",
    "1251": "ning",
    "1252": " Un",
    "1253": " may",
    "1254": " Wh",
    "1255": "Bo",
    "1256": "Item",
    "1257": "struct",
    "1258": ".st",
    "1259": "ream",
    "1260": "ible",
    "1261": "loat",
    "1262": " org",
    "1263": "und",
    "1264": "sum",
    "1265": "_in",
    "1266": "../",
    "1267": "_M",
    "1268": " how",
    "1269": "rite",
    "1270": "'\n",
    "1271": "To",
    "1272": "40",
    "1273": "ww",
    "1274": " people",
    "1275": "index",
    "1276": ".n",
    "1277": "http",
    "1278": "(m",
    "1279": "ector",
    "1280": " ind",
    "1281": " jav",
    "1282": "],\n",
    "1283": " He",
    "1284": "_st",
    "1285": "ful",
    "1286": "ole",
    "1287": "){\n",
    "1288": " should",
    "1289": "opy",
    "1290": "elp",
    "1291": "ier",
    "1292": "_name",
    "1293": "erson",
    "1294": "ION",
    "1295": "ote",
    "1296": " test",
    "1297": " bet",
    "1298": "rror",
    "1299": "ular",
    "1300": "b'\\xe3\\x80'",
    "1301": "b' \\xd0'",
    "1302": "bs",
    "1303": "ting",
    "1304": " make",
    "1305": "Tr",
    "1306": " after",
    "1307": "arget",
    "1308": "RO",
    "1309": "olumn",
    "1310": "rc",
    "1311": "_re",
    "1312": "define",
    "1313": "22",
    "1314": " right",
    "1315": "right",
    "1316": "day",
    "1317": " long",
    "1318": "[]",
    "1319": "(p",
    "1320": "td",
    "1321": "cond",
    "1322": " Pro",
    "1323": " rem",
    "1324": "ptions",
    "1325": "vid",
    "1326": ".g",
    "1327": " ext",
    "1328": " __",
    "1329": "')\n",
    "1330": "pace",
    "1331": "mp",
    "1332": " min",
    "1333": "stance",
    "1334": "air",
    "1335": "action",
    "1336": "wh",
    "1337": "type",
    "1338": "util",
    "1339": "ait",
    "1340": "<?",
    "1341": "IC",
    "1342": "text",
    "1343": " ph",
    "1344": " fl",
    "1345": ".M",
    "1346": "ccess",
    "1347": "br",
    "1348": "fore",
    "1349": "ersion",
    "1350": "),\n",
    "1351": ".re",
    "1352": "ateg",
    "1353": " loc",
    "1354": "ins",
    "1355": "-s",
    "1356": "trib",
    "1357": " Int",
    "1358": " array",
    "1359": ",\"",
    "1360": "Pro",
    "1361": "(c",
    "1362": "ession",
    "1363": ">\n\n",
    "1364": " she",
    "1365": "\"]",
    "1366": "aph",
    "1367": " exp",
    "1368": "erty",
    "1369": " Se",
    "1370": " par",
    "1371": "unc",
    "1372": "ET",
    "1373": " read",
    "1374": "print",
    "1375": " rel",
    "1376": " form",
    "1377": " dr",
    "1378": "Exception",
    "1379": "input",
    "1380": " trans",
    "1381": "########",
    "1382": "order",
    "1383": "By",
    "1384": " aw",
    "1385": "ities",
    "1386": "uff",
    "1387": "play",
    "1388": ".add",
    "1389": " \u2013",
    "1390": " want",
    "1391": " comp",
    "1392": "ments",
    "1393": " ||",
    "1394": "az",
    "1395": "be",
    "1396": " number",
    "1397": " require",
    "1398": " Ex",
    "1399": "60",
    "1400": " col",
    "1401": " key",
    "1402": "ember",
    "1403": " two",
    "1404": " size",
    "1405": " where",
    "1406": "UT",
    "1407": "result",
    "1408": "                               ",
    "1409": "ough",
    "1410": "orld",
    "1411": "ood",
    "1412": "uch",
    "1413": "ative",
    "1414": "ger",
    "1415": "arent",
    "1416": " /*",
    "1417": " arg",
    "1418": " while",
    "1419": "23",
    "1420": "(this",
    "1421": " rec",
    "1422": " dif",
    "1423": "State",
    "1424": " spec",
    "1425": "ride",
    "1426": "_F",
    "1427": " look",
    "1428": "AM",
    "1429": "ility",
    "1430": "eter",
    "1431": "\u2019t",
    "1432": "\n\n\n",
    "1433": "ayout",
    "1434": "--------------------------------",
    "1435": "ager",
    "1436": " could",
    "1437": " br",
    "1438": "ends",
    "1439": "ures",
    "1440": " know",
    "1441": "ets",
    "1442": " If",
    "1443": " Sh",
    "1444": ".w",
    "1445": "back",
    "1446": " ser",
    "1447": " +=",
    "1448": " fr",
    "1449": "());\n",
    "1450": " hand",
    "1451": "Ind",
    "1452": "ULL",
    "1453": "Im",
    "1454": "();\n\n",
    "1455": " most",
    "1456": " try",
    "1457": " now",
    "1458": "rough",
    "1459": ">\r\n",
    "1460": "ackage",
    "1461": " him",
    "1462": "._",
    "1463": "ify",
    "1464": " break",
    "1465": " );\n",
    "1466": "ren",
    "1467": "#define",
    "1468": "itt",
    "1469": " ap",
    "1470": "\tc",
    "1471": "(n",
    "1472": " You",
    "1473": ":\n\n",
    "1474": "-m",
    "1475": " every",
    "1476": "ustom",
    "1477": "lient",
    "1478": "ocument",
    "1479": "cription",
    "1480": "Error",
    "1481": "-b",
    "1482": "\u043e",
    "1483": "][",
    "1484": "99",
    "1485": "trans",
    "1486": " point",
    "1487": " std",
    "1488": " fil",
    "1489": "Time",
    "1490": "80",
    "1491": " mod",
    "1492": " ->",
    "1493": " error",
    "1494": "ah",
    "1495": " text",
    "1496": "roller",
    "1497": "lose",
    "1498": "ql",
    "1499": " pol",
    "1500": "></",
    "1501": " show",
    "1502": "User",
    "1503": "ased",
    "1504": " {\n\n",
    "1505": " find",
    "1506": "\u0430",
    "1507": "ED",
    "1508": "span",
    "1509": "enu",
    "1510": " current",
    "1511": " used",
    "1512": "cept",
    "1513": "clud",
    "1514": " play",
    "1515": " log",
    "1516": "ution",
    "1517": "fl",
    "1518": " see",
    "1519": "indows",
    "1520": " help",
    "1521": " these",
    "1522": " pass",
    "1523": " down",
    "1524": " even",
    "1525": "ason",
    "1526": "uild",
    "1527": "from",
    "1528": "(d",
    "1529": " bl",
    "1530": "label",
    "1531": "else",
    "1532": "\u0435",
    "1533": " (!",
    "1534": "ized",
    "1535": "(),",
    "1536": " ob",
    "1537": " item",
    "1538": "ump",
    "1539": "UR",
    "1540": "orn",
    "1541": " don",
    "1542": "Se",
    "1543": "man",
    "1544": "27",
    "1545": "ample",
    "1546": "tn",
    "1547": "================",
    "1548": "He",
    "1549": "gram",
    "1550": " did",
    "1551": "wn",
    "1552": "_h",
    "1553": "iver",
    "1554": " sm",
    "1555": " through",
    "1556": " An",
    "1557": "che",
    "1558": " inv",
    "1559": "ouse",
    "1560": " es",
    "1561": " New",
    "1562": "export",
    "1563": "mary",
    "1564": "uto",
    "1565": "ler",
    "1566": " last",
    "1567": " event",
    "1568": "try",
    "1569": "b'\\xef\\xbc'",
    "1570": "ily",
    "1571": "igned",
    "1572": "ines",
    "1573": "ollow",
    "1574": "icense",
    "1575": "sole",
    "1576": "lear",
    "1577": "(int",
    "1578": " again",
    "1579": " high",
    "1580": "html",
    "1581": "Index",
    "1582": "uthor",
    "1583": " /**\n",
    "1584": " line",
    "1585": "Event",
    "1586": "_D",
    "1587": " does",
    "1588": "itial",
    "1589": " cr",
    "1590": "ars",
    "1591": "28",
    "1592": " tem",
    "1593": "cause",
    "1594": "face",
    "1595": " `",
    "1596": "_A",
    "1597": "Button",
    "1598": "ature",
    "1599": "ected",
    "1600": "ES",
    "1601": "ister",
    "1602": "\t\n",
    "1603": " before",
    "1604": "ale",
    "1605": "other",
    "1606": " because",
    "1607": "roid",
    "1608": " ed",
    "1609": "ik",
    "1610": "reg",
    "1611": " De",
    "1612": " dist",
    "1613": "},\n",
    "1614": " state",
    "1615": " cons",
    "1616": "rint",
    "1617": "att",
    "1618": " here",
    "1619": "ined",
    "1620": " final",
    "1621": " \"\"",
    "1622": "Key",
    "1623": "LO",
    "1624": " del",
    "1625": "pty",
    "1626": "thing",
    "1627": "26",
    "1628": " And",
    "1629": " run",
    "1630": " X",
    "1631": "ym",
    "1632": ".app",
    "1633": " very",
    "1634": "ces",
    "1635": "_N",
    "1636": "ared",
    "1637": "ward",
    "1638": "list",
    "1639": "ited",
    "1640": "olog",
    "1641": "itch",
    "1642": "Box",
    "1643": "ife",
    "1644": "33",
    "1645": " ac",
    "1646": " model",
    "1647": " mon",
    "1648": " way",
    "1649": "lete",
    "1650": " call",
    "1651": " att",
    "1652": " cal",
    "1653": "vert",
    "1654": " dec",
    "1655": "lease",
    "1656": "oun",
    "1657": " });\n",
    "1658": "fr",
    "1659": "formation",
    "1660": "etail",
    "1661": " num",
    "1662": "aj",
    "1663": "query",
    "1664": " well",
    "1665": " object",
    "1666": " As",
    "1667": " years",
    "1668": "Color",
    "1669": "IS",
    "1670": " default",
    "1671": "Wh",
    "1672": " ins",
    "1673": "aint",
    "1674": " java",
    "1675": " sim",
    "1676": " Ar",
    "1677": "mon",
    "1678": "til",
    "1679": "();\r\n",
    "1680": "):",
    "1681": "Set",
    "1682": "29",
    "1683": "atter",
    "1684": " view",
    "1685": " pres",
    "1686": "array",
    "1687": "We",
    "1688": "At",
    "1689": " bel",
    "1690": " many",
    "1691": "21",
    "1692": "Man",
    "1693": "ender",
    "1694": " being",
    "1695": " good",
    "1696": "\t\t\t\t\t\t",
    "1697": "ational",
    "1698": "ware",
    "1699": ".log",
    "1700": "{\r\n",
    "1701": " using",
    "1702": "_B",
    "1703": " :=",
    "1704": "_w",
    "1705": "ists",
    "1706": "lish",
    "1707": " stud",
    "1708": " Al",
    "1709": " gu",
    "1710": "config",
    "1711": "uring",
    "1712": "time",
    "1713": "oken",
    "1714": "amespace",
    "1715": " request",
    "1716": " child",
    "1717": "b' \\xc3'",
    "1718": "lob",
    "1719": " param",
    "1720": " }\r\n",
    "1721": "01",
    "1722": " echo",
    "1723": "function",
    "1724": "********************************",
    "1725": "ps",
    "1726": "Element",
    "1727": "alk",
    "1728": "lication",
    "1729": "by",
    "1730": "Size",
    "1731": "rawing",
    "1732": " person",
    "1733": "                 ",
    "1734": "\\n",
    "1735": "object",
    "1736": "ince",
    "1737": "En",
    "1738": "File",
    "1739": "uf",
    "1740": "ffect",
    "1741": "AC",
    "1742": " style",
    "1743": "summary",
    "1744": " que",
    "1745": "_r",
    "1746": " ($",
    "1747": "Model",
    "1748": "ident",
    "1749": " method",
    "1750": "IL",
    "1751": "ott",
    "1752": "less",
    "1753": "ING",
    "1754": " ()",
    "1755": " expect",
    "1756": "ync",
    "1757": "package",
    "1758": "35",
    "1759": "urs",
    "1760": " prot",
    "1761": "./",
    "1762": "pre",
    "1763": " )\n",
    "1764": "ma",
    "1765": " sur",
    "1766": " found",
    "1767": "Info",
    "1768": "par",
    "1769": "imes",
    "1770": ".e",
    "1771": "ains",
    "1772": " post",
    "1773": "-d",
    "1774": "45",
    "1775": "olean",
    "1776": " sl",
    "1777": "PE",
    "1778": " such",
    "1779": "select",
    "1780": "ainer",
    "1781": " think",
    "1782": " differ",
    "1783": ".r",
    "1784": "/**\n",
    "1785": "FF",
    "1786": "ool",
    "1787": "plate",
    "1788": "qual",
    "1789": " For",
    "1790": " much",
    "1791": "uc",
    "1792": "(new",
    "1793": "odule",
    "1794": " som",
    "1795": " http",
    "1796": " List",
    "1797": " count",
    "1798": " inst",
    "1799": "char",
    "1800": "mit",
    "1801": ".id",
    "1802": "aking",
    "1803": " gener",
    "1804": "px",
    "1805": "vice",
    "1806": "37",
    "1807": "_data",
    "1808": " NULL",
    "1809": "}\r\n",
    "1810": "idd",
    "1811": "\u3002",
    "1812": " med",
    "1813": "org",
    "1814": "ider",
    "1815": "ache",
    "1816": "work",
    "1817": " check",
    "1818": "ween",
    "1819": " ((",
    "1820": "the",
    "1821": "ants",
    "1822": "><",
    "1823": ".B",
    "1824": "-c",
    "1825": " open",
    "1826": " est",
    "1827": "        \n",
    "1828": " next",
    "1829": "IM",
    "1830": "\u0442",
    "1831": "OT",
    "1832": "\u00f3",
    "1833": " follow",
    "1834": "content",
    "1835": "            ",
    "1836": " includ",
    "1837": "HE",
    "1838": " Res",
    "1839": " href",
    "1840": "\u0438",
    "1841": " car",
    "1842": "ypes",
    "1843": "image",
    "1844": "Un",
    "1845": " bool",
    "1846": "AD",
    "1847": " game",
    "1848": ".Form",
    "1849": "rows",
    "1850": "*/",
    "1851": "velop",
    "1852": ".Drawing",
    "1853": " path",
    "1854": "ision",
    "1855": " each",
    "1856": " Pl",
    "1857": "_type",
    "1858": "Path",
    "1859": "nection",
    "1860": " av",
    "1861": "').",
    "1862": " support",
    "1863": "ENT",
    "1864": "rem",
    "1865": "\").",
    "1866": " own",
    "1867": " cor",
    "1868": "count",
    "1869": "miss",
    "1870": "ually",
    "1871": " mem",
    "1872": "std",
    "1873": "ience",
    "1874": "search",
    "1875": "\"\n\n",
    "1876": "Form",
    "1877": " sex",
    "1878": "ename",
    "1879": " sign",
    "1880": " et",
    "1881": "          ",
    "1882": "','",
    "1883": " App",
    "1884": " those",
    "1885": "off",
    "1886": " err",
    "1887": " system",
    "1888": " best",
    "1889": "code",
    "1890": " same",
    "1891": " di",
    "1892": "uss",
    "1893": " create",
    "1894": "ather",
    "1895": "Array",
    "1896": ".in",
    "1897": "fe",
    "1898": "Service",
    "1899": "UN",
    "1900": "ats",
    "1901": " Z",
    "1902": "alth",
    "1903": " made",
    "1904": "true",
    "1905": "AB",
    "1906": " mark",
    "1907": "rid",
    "1908": "ified",
    "1909": ",\r\n",
    "1910": "yn",
    "1911": "press",
    "1912": " group",
    "1913": " fin",
    "1914": " License",
    "1915": "Field",
    "1916": "eger",
    "1917": " world",
    "1918": "iness",
    "1919": "ty",
    "1920": " process",
    "1921": "(b",
    "1922": " cre",
    "1923": "arn",
    "1924": "ives",
    "1925": " main",
    "1926": "ideo",
    "1927": "36",
    "1928": "_g",
    "1929": "AG",
    "1930": "valid",
    "1931": "img",
    "1932": "PI",
    "1933": " color",
    "1934": " report",
    "1935": " take",
    "1936": "rib",
    "1937": "OM",
    "1938": " day",
    "1939": "Request",
    "1940": " sk",
    "1941": "bers",
    "1942": "\ts",
    "1943": ".Add",
    "1944": "oot",
    "1945": "Image",
    "1946": " comple",
    "1947": "ollection",
    "1948": " top",
    "1949": " free",
    "1950": "AS",
    "1951": "De",
    "1952": " On",
    "1953": "IG",
    "1954": "90",
    "1955": "eta",
    "1956": "Date",
    "1957": " action",
    "1958": "34",
    "1959": "Over",
    "1960": "itor",
    "1961": "                                   ",
    "1962": "not",
    "1963": " index",
    "1964": "her",
    "1965": "icon",
    "1966": "On",
    "1967": ";\r\n\r\n",
    "1968": "ivity",
    "1969": "mand",
    "1970": ".Windows",
    "1971": "OL",
    "1972": " real",
    "1973": " max",
    "1974": "land",
    "1975": "....",
    "1976": "raph",
    "1977": " build",
    "1978": "leg",
    "1979": "assword",
    "1980": "?\n\n",
    "1981": "\u2026",
    "1982": "ook",
    "1983": "uck",
    "1984": " message",
    "1985": "test",
    "1986": "ivers",
    "1987": "38",
    "1988": " input",
    "1989": " art",
    "1990": " between",
    "1991": "Get",
    "1992": "enter",
    "1993": "ground",
    "1994": "ene",
    "1995": "\u00e1",
    "1996": ".length",
    "1997": "Node",
    "1998": "(i",
    "1999": "Class",
    "2000": "for",
    "2001": " \u2014",
    "2002": "ten",
    "2003": "oin",
    "2004": " ke",
    "2005": "ui",
    "2006": " IN",
    "2007": " table",
    "2008": "sub",
    "2009": " Le",
    "2010": " head",
    "2011": " must",
    "2012": "////////////////",
    "2013": ".util",
    "2014": "Context",
    "2015": " order",
    "2016": " mov",
    "2017": "over",
    "2018": " contin",
    "2019": " say",
    "2020": "static",
    "2021": ".Text",
    "2022": " className",
    "2023": "pany",
    "2024": " ter",
    "2025": "head",
    "2026": "rg",
    "2027": " product",
    "2028": "This",
    "2029": ".\u201d",
    "2030": " But",
    "2031": "70",
    "2032": "loy",
    "2033": " double",
    "2034": "sg",
    "2035": " place",
    "2036": ".x",
    "2037": "message",
    "2038": " information",
    "2039": "private",
    "2040": " oper",
    "2041": "ced",
    "2042": "db",
    "2043": "\"></",
    "2044": "Param",
    "2045": "icle",
    "2046": " week",
    "2047": " prop",
    "2048": "table",
    "2049": "idget",
    "2050": "place",
    "2051": "Prop",
    "2052": " All",
    "2053": "els",
    "2054": "box",
    "2055": ".\n\n\n\n",
    "2056": ".R",
    "2057": " To",
    "2058": "iter",
    "2059": "Sh",
    "2060": "uration",
    "2061": "older",
    "2062": "_list",
    "2063": "come",
    "2064": " sw",
    "2065": "ization",
    "2066": "\tfor",
    "2067": "bl",
    "2068": " program",
    "2069": "(e",
    "2070": "ape",
    "2071": "check",
    "2072": ".Forms",
    "2073": " und",
    "2074": "ategory",
    "2075": "75",
    "2076": "ags",
    "2077": " response",
    "2078": "US",
    "2079": "request",
    "2080": " struct",
    "2081": "escription",
    "2082": " code",
    "2083": "_H",
    "2084": "uffer",
    "2085": " without",
    "2086": "lobal",
    "2087": "Manager",
    "2088": "ilter",
    "2089": "PO",
    "2090": "\tthis",
    "2091": "option",
    "2092": " sol",
    "2093": " ===",
    "2094": "akes",
    "2095": "Controller",
    "2096": "44",
    "2097": "Message",
    "2098": " ref",
    "2099": "ever",
    "2100": " So",
    "2101": "aining",
    "2102": ".append",
    "2103": " still",
    "2104": " provid",
    "2105": " assert",
    "2106": "med",
    "2107": " cap",
    "2108": "usiness",
    "2109": " rep",
    "2110": "tings",
    "2111": "ved",
    "2112": ".N",
    "2113": "api",
    "2114": "OD",
    "2115": " field",
    "2116": "iven",
    "2117": "oto",
    "2118": "\u201c",
    "2119": "col",
    "2120": "(x",
    "2121": "ght",
    "2122": "Result",
    "2123": "Code",
    "2124": ".is",
    "2125": "link",
    "2126": " cour",
    "2127": "An",
    "2128": " team",
    "2129": "\tint",
    "2130": "ift",
    "2131": "55",
    "2132": " second",
    "2133": " going",
    "2134": " range",
    "2135": "_E",
    "2136": "ness",
    "2137": "39",
    "2138": " fam",
    "2139": " nil",
    "2140": " Cont",
    "2141": "ailable",
    "2142": "utes",
    "2143": "atab",
    "2144": " fact",
    "2145": " vis",
    "2146": "(&",
    "2147": " AN",
    "2148": "31",
    "2149": "Al",
    "2150": "title",
    "2151": " android",
    "2152": "CE",
    "2153": "\\\"",
    "2154": "irt",
    "2155": " writ",
    "2156": "\u043d",
    "2157": "\tm",
    "2158": "ftware",
    "2159": "ond",
    "2160": " ret",
    "2161": "osition",
    "2162": " home",
    "2163": " left",
    "2164": "args",
    "2165": "meric",
    "2166": "48",
    "2167": " direct",
    "2168": "oci",
    "2169": "Pl",
    "2170": "As",
    "2171": "ret",
    "2172": "ado",
    "2173": "Of",
    "2174": "chn",
    "2175": " Get",
    "2176": "ee",
    "2177": "ross",
    "2178": "();",
    "2179": "____",
    "2180": ".ph",
    "2181": "It",
    "2182": "oute",
    "2183": " exper",
    "2184": "chool",
    "2185": "www",
    "2186": "},",
    "2187": " allow",
    "2188": "b' \\xc2'",
    "2189": "())",
    "2190": "size",
    "2191": "ism",
    "2192": "ai",
    "2193": "tract",
    "2194": "ane",
    "2195": "...\n\n",
    "2196": "context",
    "2197": " beg",
    "2198": "CH",
    "2199": " page",
    "2200": "hip",
    "2201": "no",
    "2202": "core",
    "2203": "sp",
    "2204": " different",
    "2205": "iable",
    "2206": " Me",
    "2207": "_IN",
    "2208": "button",
    "2209": " Is",
    "2210": "ervices",
    "2211": " ca",
    "2212": " around",
    "2213": "App",
    "2214": "ration",
    "2215": " rece",
    "2216": " really",
    "2217": " image",
    "2218": " target",
    "2219": " dep",
    "2220": "opyright",
    "2221": "tra",
    "2222": "ingle",
    "2223": "ital",
    "2224": "Layout",
    "2225": " both",
    "2226": "Override",
    "2227": "arm",
    "2228": "=>",
    "2229": "aterial",
    "2230": "iled",
    "2231": " put",
    "2232": "Qu",
    "2233": "\u0440",
    "2234": "ung",
    "2235": "map",
    "2236": "\t\t\t\t\t\t\t\t",
    "2237": " level",
    "2238": "Component",
    "2239": "book",
    "2240": "creen",
    "2241": "_RE",
    "2242": " config",
    "2243": "b'\\xe3\\x81'",
    "2244": "Or",
    "2245": ".data",
    "2246": " document",
    "2247": "\",\"",
    "2248": "tribute",
    "2249": "ux",
    "2250": "Log",
    "2251": "ference",
    "2252": "post",
    "2253": "_e",
    "2254": " local",
    "2255": "andom",
    "2256": "assert",
    "2257": "Val",
    "2258": "lected",
    "2259": "ina",
    "2260": "atabase",
    "2261": "Add",
    "2262": " content",
    "2263": ".print",
    "2264": "signed",
    "2265": "ric",
    "2266": ".\"\n\n",
    "2267": " fa",
    "2268": "!\n\n",
    "2269": "-f",
    "2270": "ived",
    "2271": " quest",
    "2272": ".ex",
    "2273": " float",
    "2274": " develop",
    "2275": "b'\\xd0\\xbe\\xd0'",
    "2276": "Map",
    "2277": "ading",
    "2278": " poss",
    "2279": "UE",
    "2280": "namespace",
    "2281": "_O",
    "2282": "\tb",
    "2283": ".Get",
    "2284": ">(",
    "2285": "json",
    "2286": "etails",
    "2287": "66",
    "2288": " too",
    "2289": " extends",
    "2290": " None",
    "2291": " fore",
    "2292": "(String",
    "2293": "format",
    "2294": " great",
    "2295": "inter",
    "2296": "cale",
    "2297": "\u0441",
    "2298": "ron",
    "2299": "iving",
    "2300": "Ent",
    "2301": "ency",
    "2302": "xt",
    "2303": "oy",
    "2304": "05",
    "2305": " month",
    "2306": " happ",
    "2307": " super",
    "2308": "bar",
    "2309": "default",
    "2310": "_de",
    "2311": "ords",
    "2312": "ln",
    "2313": "({\n",
    "2314": " Ind",
    "2315": "ases",
    "2316": " title",
    "2317": " context",
    "2318": "08",
    "2319": "oh",
    "2320": "-p",
    "2321": "Em",
    "2322": " met",
    "2323": "Test",
    "2324": " life",
    "2325": "_v",
    "2326": " US",
    "2327": "UI",
    "2328": "ocation",
    "2329": "md",
    "2330": " [\n",
    "2331": " ]",
    "2332": "sw",
    "2333": " incre",
    "2334": "script",
    "2335": "ential",
    "2336": "ways",
    "2337": ".de",
    "2338": " src",
    "2339": " catch",
    "2340": " Americ",
    "2341": "//\n",
    "2342": "              ",
    "2343": " pay",
    "2344": "plit",
    "2345": "\u2014",
    "2346": " coun",
    "2347": "obj",
    "2348": ".php",
    "2349": " change",
    "2350": "ething",
    "2351": "'re",
    "2352": "aster",
    "2353": "los",
    "2354": "lation",
    "2355": "  \n",
    "2356": "Le",
    "2357": "\u00e4",
    "2358": "({",
    "2359": "ready",
    "2360": " No",
    "2361": " position",
    "2362": " old",
    "2363": " book",
    "2364": "abled",
    "2365": "bug",
    "2366": "202",
    "2367": "Hand",
    "2368": "};\n\n",
    "2369": "isplay",
    "2370": "aving",
    "2371": "04",
    "2372": " gover",
    "2373": " version",
    "2374": "System",
    "2375": "nect",
    "2376": "response",
    "2377": "Style",
    "2378": "Up",
    "2379": "angu",
    "2380": " three",
    "2381": "init",
    "2382": "ero",
    "2383": " law",
    "2384": "endif",
    "2385": " base",
    "2386": "email",
    "2387": "(l",
    "2388": "_V",
    "2389": " conf",
    "2390": "ATE",
    "2391": " during",
    "2392": "tes",
    "2393": " console",
    "2394": " Pr",
    "2395": " spe",
    "2396": "ves",
    "2397": "65",
    "2398": "path",
    "2399": "ialog",
    "2400": "dition",
    "2401": "_to",
    "2402": "ards",
    "2403": " against",
    "2404": "etwork",
    "2405": " Ph",
    "2406": "_L",
    "2407": "cur",
    "2408": "imit",
    "2409": "With",
    "2410": " power",
    "2411": "ium",
    "2412": "';\n\n",
    "2413": " wom",
    "2414": "left",
    "2415": "ources",
    "2416": "atri",
    "2417": " Im",
    "2418": " Man",
    "2419": "orth",
    "2420": "${",
    "2421": "88",
    "2422": "quals",
    "2423": "ese",
    "2424": "_size",
    "2425": " iss",
    "2426": "otal",
    "2427": "-g",
    "2428": "ique",
    "2429": "rame",
    "2430": " width",
    "2431": "erg",
    "2432": ")(",
    "2433": "ittle",
    "2434": "TR",
    "2435": " They",
    "2436": "ences",
    "2437": "02",
    "2438": "rl",
    "2439": "ons",
    "2440": " label",
    "2441": ".y",
    "2442": "-t",
    "2443": "update",
    "2444": "anel",
    "2445": "sc",
    "2446": ".to",
    "2447": " project",
    "2448": "\u00fc",
    "2449": " element",
    "2450": " success",
    "2451": "\t\t\n",
    "2452": ".sh",
    "2453": "ram",
    "2454": "ched",
    "2455": "())\n",
    "2456": " (\n",
    "2457": " date",
    "2458": " tot",
    "2459": "_ST",
    "2460": "All",
    "2461": "ification",
    "2462": "\tvar",
    "2463": " tri",
    "2464": "chem",
    "2465": "my",
    "2466": " big",
    "2467": " Ad",
    "2468": " At",
    "2469": "ots",
    "2470": "num",
    "2471": "Act",
    "2472": " map",
    "2473": "era",
    "2474": "cope",
    "2475": ".$",
    "2476": ",\u201d",
    "2477": " pop",
    "2478": " few",
    "2479": " len",
    "2480": "uid",
    "2481": "eters",
    "2482": "ules",
    "2483": "\u00ed",
    "2484": "source",
    "2485": "https",
    "2486": " dem",
    "2487": " ear",
    "2488": "################",
    "2489": " match",
    "2490": "ories",
    "2491": "49",
    "2492": "aces",
    "2493": " Cl",
    "2494": " node",
    "2495": "78",
    "2496": "irc",
    "2497": "local",
    "2498": "unity",
    "2499": "};\n",
    "2500": " another",
    "2501": "<<",
    "2502": "ogle",
    "2503": " sit",
    "2504": "ework",
    "2505": "TE",
    "2506": ".I",
    "2507": "NS",
    "2508": "ology",
    "2509": "ought",
    "2510": ".Cont",
    "2511": ">>",
    "2512": " care",
    "2513": "state",
    "2514": "\tprivate",
    "2515": " effect",
    "2516": "++)",
    "2517": "_file",
    "2518": "ending",
    "2519": "Line",
    "2520": "For",
    "2521": "ior",
    "2522": " Sc",
    "2523": " fun",
    "2524": ".Size",
    "2525": "\telse",
    "2526": "])",
    "2527": "start",
    "2528": "vious",
    "2529": " },",
    "2530": "ours",
    "2531": " leg",
    "2532": " service",
    "2533": " since",
    "2534": "iron",
    "2535": "Label",
    "2536": " non",
    "2537": " los",
    "2538": "iction",
    "2539": " full",
    "2540": "acter",
    "2541": "board",
    "2542": "gress",
    "2543": " turn",
    "2544": "ither",
    "2545": "09",
    "2546": ".size",
    "2547": " body",
    "2548": "resh",
    "2549": "eturn",
    "2550": "199",
    "2551": "(_",
    "2552": "yles",
    "2553": "ormal",
    "2554": "pi",
    "2555": " something",
    "2556": "!--",
    "2557": "uint",
    "2558": " produ",
    "2559": " stand",
    "2560": " proble",
    "2561": " available",
    "2562": "mt",
    "2563": " Bl",
    "2564": " ...",
    "2565": " block",
    "2566": "Input",
    "2567": " keep",
    "2568": "Count",
    "2569": "open",
    "2570": " ['",
    "2571": " throw",
    "2572": "uilder",
    "2573": "Action",
    "2574": " things",
    "2575": "True",
    "2576": " url",
    "2577": " Bo",
    "2578": "printf",
    "2579": " red",
    "2580": "js",
    "2581": ".create",
    "2582": " Or",
    "2583": "Status",
    "2584": "Instance",
    "2585": " control",
    "2586": " come",
    "2587": " custom",
    "2588": "location",
    "2589": "07",
    "2590": "model",
    "2591": " \r\n",
    "2592": " source",
    "2593": " eas",
    "2594": ".out",
    "2595": "]\n\n",
    "2596": "oney",
    "2597": " await",
    "2598": " partic",
    "2599": "AP",
    "2600": "ublish",
    "2601": "odes",
    "2602": "_pro",
    "2603": "ply",
    "2604": "riter",
    "2605": " prov",
    "2606": " mill",
    "2607": "HT",
    "2608": "])\n",
    "2609": " chang",
    "2610": " ask",
    "2611": "                     ",
    "2612": " output",
    "2613": " email",
    "2614": "68",
    "2615": ".push",
    "2616": " }\r\n\r\n",
    "2617": "ination",
    "2618": "47",
    "2619": "atrix",
    "2620": "Table",
    "2621": "uccess",
    "2622": "]);\n",
    "2623": "                                       ",
    "2624": " disc",
    "2625": "([",
    "2626": " business",
    "2627": "height",
    "2628": ".html",
    "2629": "ta",
    "2630": "field",
    "2631": " required",
    "2632": "_R",
    "2633": " govern",
    "2634": "}\r\n\r\n",
    "2635": "lex",
    "2636": "500",
    "2637": ".,",
    "2638": " Set",
    "2639": "urch",
    "2640": "///",
    "2641": "ts",
    "2642": "af",
    "2643": " might",
    "2644": "istory",
    "2645": "Str",
    "2646": " never",
    "2647": "Response",
    "2648": "arse",
    "2649": "ada",
    "2650": " How",
    "2651": " *)",
    "2652": " ;",
    "2653": " hard",
    "2654": "Ad",
    "2655": " intern",
    "2656": "used",
    "2657": "(data",
    "2658": "mod",
    "2659": "annel",
    "2660": " np",
    "2661": "ugg",
    "2662": " />\n",
    "2663": " called",
    "2664": "body",
    "2665": " cho",
    "2666": "(r",
    "2667": "_set",
    "2668": "ird",
    "2669": " >=",
    "2670": " };\n",
    "2671": " options",
    "2672": " Gener",
    "2673": " height",
    "2674": "Point",
    "2675": "You",
    "2676": "ety",
    "2677": "Click",
    "2678": " small",
    "2679": " ide",
    "2680": " access",
    "2681": "anguage",
    "2682": " protected",
    "2683": " job",
    "2684": " There",
    "2685": "Def",
    "2686": " address",
    "2687": " uint",
    "2688": "Not",
    "2689": "oo",
    "2690": "aps",
    "2691": "<div",
    "2692": "ained",
    "2693": "atur",
    "2694": " sum",
    "2695": "-w",
    "2696": " Date",
    "2697": " little",
    "2698": " fri",
    "2699": "YPE",
    "2700": " port",
    "2701": "eh",
    "2702": "pring",
    "2703": "_path",
    "2704": " status",
    "2705": "06",
    "2706": "aim",
    "2707": "bool",
    "2708": " appe",
    "2709": " os",
    "2710": ".name",
    "2711": "ension",
    "2712": "_G",
    "2713": " update",
    "2714": "Config",
    "2715": "aff",
    "2716": "ERR",
    "2717": " <=",
    "2718": "ately",
    "2719": "#if",
    "2720": "uction",
    "2721": "95",
    "2722": " Te",
    "2723": " link",
    "2724": " User",
    "2725": ".find",
    "2726": ".org",
    "2727": "me",
    "2728": " given",
    "2729": "Out",
    "2730": "#endif",
    "2731": " better",
    "2732": "Page",
    "2733": " feel",
    "2734": "enn",
    "2735": "ML",
    "2736": " already",
    "2737": " including",
    "2738": "oogle",
    "2739": "ru",
    "2740": "ically",
    "2741": "prop",
    "2742": "lean",
    "2743": "outer",
    "2744": " always",
    "2745": "ording",
    "2746": "If",
    "2747": "orage",
    "2748": " parent",
    "2749": "vis",
    "2750": "\t\t\t\t\t\t\t",
    "2751": " got",
    "2752": "stand",
    "2753": " less",
    "2754": "/s",
    "2755": " Ass",
    "2756": "apt",
    "2757": "ired",
    "2758": " Add",
    "2759": " account",
    "2760": "ploy",
    "2761": " der",
    "2762": "resent",
    "2763": " lot",
    "2764": " valid",
    "2765": "\td",
    "2766": " bit",
    "2767": "ponents",
    "2768": " following",
    "2769": "_ex",
    "2770": "SON",
    "2771": " sure",
    "2772": "ocial",
    "2773": " prom",
    "2774": "erties",
    "2775": "header",
    "2776": ".pro",
    "2777": " boolean",
    "2778": " search",
    "2779": "ken",
    "2780": " orig",
    "2781": " er",
    "2782": "Ed",
    "2783": "EM",
    "2784": "aut",
    "2785": "ling",
    "2786": "ality",
    "2787": "ById",
    "2788": "bed",
    "2789": "\tcase",
    "2790": "46",
    "2791": "ether",
    "2792": "posit",
    "2793": " invest",
    "2794": " OR",
    "2795": " says",
    "2796": "mission",
    "2797": "AME",
    "2798": " temp",
    "2799": "oad",
    "2800": " rest",
    "2801": "info",
    "2802": " interest",
    "2803": "Arg",
    "2804": " perform",
    "2805": "pons",
    "2806": " View",
    "2807": " ver",
    "2808": "lib",
    "2809": "(const",
    "2810": "Util",
    "2811": "Listener",
    "2812": "arge",
    "2813": "77",
    "2814": " mult",
    "2815": " die",
    "2816": " site",
    "2817": "../../",
    "2818": "EL",
    "2819": " values",
    "2820": " })\n",
    "2821": "pen",
    "2822": "No",
    "2823": "icro",
    "2824": " beh",
    "2825": " './",
    "2826": "acy",
    "2827": "rec",
    "2828": "()->",
    "2829": "\t   ",
    "2830": "\"))",
    "2831": "Content",
    "2832": "_W",
    "2833": "plement",
    "2834": " won",
    "2835": " video",
    "2836": "adi",
    "2837": "point",
    "2838": "%%",
    "2839": "03",
    "2840": " gl",
    "2841": "erved",
    "2842": "viron",
    "2843": "IF",
    "2844": "uted",
    "2845": "b'\\xe3\\x83'",
    "2846": "'m",
    "2847": " cert",
    "2848": " prof",
    "2849": " cell",
    "2850": "ari",
    "2851": " player",
    "2852": "ais",
    "2853": " cost",
    "2854": " hum",
    "2855": "(R",
    "2856": " offic",
    "2857": "ks",
    "2858": ".text",
    "2859": "atures",
    "2860": " total",
    "2861": " */\n\n",
    "2862": "ope",
    "2863": " stat",
    "2864": "UM",
    "2865": " load",
    "2866": "ights",
    "2867": " clear",
    "2868": "uro",
    "2869": " techn",
    "2870": "upport",
    "2871": "IR",
    "2872": " row",
    "2873": " seem",
    "2874": " q",
    "2875": " short",
    "2876": " Not",
    "2877": "ipp",
    "2878": "Group",
    "2879": "section",
    "2880": "max",
    "2881": "irl",
    "2882": " override",
    "2883": " company",
    "2884": " done",
    "2885": "\");\r\n",
    "2886": " gre",
    "2887": ".Re",
    "2888": " belie",
    "2889": "rist",
    "2890": " health",
    "2891": "ANT",
    "2892": "()\n\n",
    "2893": " Be",
    "2894": ".value",
    "2895": " Gr",
    "2896": "ottom",
    "2897": " args",
    "2898": "PT",
    "2899": "status",
    "2900": "func",
    "2901": "uments",
    "2902": "-h",
    "2903": "Number",
    "2904": ":\r\n",
    "2905": " Log",
    "2906": "erver",
    "2907": " ),\n",
    "2908": "ament",
    "2909": " obj",
    "2910": "inc",
    "2911": " children",
    "2912": "icy",
    "2913": "IZ",
    "2914": "ands",
    "2915": "ably",
    "2916": " distrib",
    "2917": " cur",
    "2918": "erial",
    "2919": " days",
    "2920": "reated",
    "2921": "rect",
    "2922": "-l",
    "2923": "irm",
    "2924": "idden",
    "2925": "omb",
    "2926": " initial",
    "2927": ".js",
    "2928": "b' \\xe2'",
    "2929": "Query",
    "2930": " online",
    "2931": "imal",
    "2932": ".con",
    "2933": "au",
    "2934": "Url",
    "2935": "control",
    "2936": "irection",
    "2937": " instance",
    "2938": "ORT",
    "2939": " Fr",
    "2940": "where",
    "2941": " javax",
    "2942": " organ",
    "2943": "apter",
    "2944": " reason",
    "2945": "options",
    "2946": "59",
    "2947": " Mar",
    "2948": "(a",
    "2949": " within",
    "2950": ".\u201d\n\n",
    "2951": "ODE",
    "2952": "_DE",
    "2953": "admin",
    "2954": "ended",
    "2955": " design",
    "2956": " Data",
    "2957": "une",
    "2958": " File",
    "2959": "root",
    "2960": " cent",
    "2961": " arr",
    "2962": "_add",
    "2963": "len",
    "2964": "page",
    "2965": ",'",
    "2966": "_str",
    "2967": " bro",
    "2968": "ability",
    "2969": "outh",
    "2970": "58",
    "2971": "/c",
    "2972": "pose",
    "2973": "irtual",
    "2974": "earch",
    "2975": "_url",
    "2976": "argin",
    "2977": "Http",
    "2978": " school",
    "2979": "ava",
    "2980": " consider",
    "2981": ".label",
    "2982": " Array",
    "2983": "42",
    "2984": "web",
    "2985": "opt",
    "2986": ".println",
    "2987": "ulation",
    "2988": " func",
    "2989": "PL",
    "2990": " \"\\",
    "2991": " Text",
    "2992": "actory",
    "2993": "(function",
    "2994": "null",
    "2995": " eng",
    "2996": "down",
    "2997": " include",
    "2998": " En",
    "2999": " Dr",
    "3000": " db",
    "3001": "!!",
    "3002": "side",
    "3003": " init",
    "3004": "quired",
    "3005": " She",
    "3006": "Column",
    "3007": "react",
    "3008": " ann",
    "3009": " stop",
    "3010": " later",
    "3011": " That",
    "3012": "ention",
    "3013": "df",
    "3014": "UG",
    "3015": "ILE",
    "3016": " client",
    "3017": "raft",
    "3018": "ffer",
    "3019": "POST",
    "3020": "elper",
    "3021": " love",
    "3022": "quote",
    "3023": "oud",
    "3024": " json",
    "3025": " able",
    "3026": " men",
    "3027": "AX",
    "3028": " Copyright",
    "3029": "\u00f6",
    "3030": "avig",
    "3031": "req",
    "3032": "Client",
    "3033": "});\n",
    "3034": ".Com",
    "3035": "erc",
    "3036": "ilt",
    "3037": "pecial",
    "3038": "_com",
    "3039": "room",
    "3040": ".Name",
    "3041": " give",
    "3042": "amb",
    "3043": "ike",
    "3044": " condition",
    "3045": "client",
    "3046": "ators",
    "3047": ":\"",
    "3048": " copy",
    "3049": "uture",
    "3050": "iversity",
    "3051": "ernal",
    "3052": "{{",
    "3053": " Can",
    "3054": "ounc",
    "3055": "do",
    "3056": " occ",
    "3057": " appro",
    "3058": "thers",
    "3059": "ze",
    "3060": " either",
    "3061": " Fl",
    "3062": " important",
    "3063": " lead",
    "3064": "attr",
    "3065": "ART",
    "3066": "Equal",
    "3067": " da",
    "3068": "etch",
    "3069": "entity",
    "3070": " family",
    "3071": "adding",
    "3072": " option",
    "3073": " exist",
    "3074": "ica",
    "3075": " Object",
    "3076": "69",
    "3077": "'ve",
    "3078": "vers",
    "3079": "itional",
    "3080": "67",
    "3081": "output",
    "3082": " True",
    "3083": " OF",
    "3084": "_time",
    "3085": " offer",
    "3086": " });\n\n",
    "3087": "HER",
    "3088": "egin",
    "3089": "\"\"",
    "3090": " water",
    "3091": " che",
    "3092": " My",
    "3093": "ored",
    "3094": " step",
    "3095": "ances",
    "3096": "CK",
    "3097": "AY",
    "3098": "b'\\xe0\\xb8'",
    "3099": "struction",
    "3100": "(C",
    "3101": "300",
    "3102": "ouch",
    "3103": "Stream",
    "3104": "active",
    "3105": "ama",
    "3106": "Entity",
    "3107": "product",
    "3108": "(){\n",
    "3109": " government",
    "3110": " ID",
    "3111": "ajor",
    "3112": "And",
    "3113": " display",
    "3114": "\u043b",
    "3115": " times",
    "3116": " four",
    "3117": " far",
    "3118": " present",
    "3119": " NS",
    "3120": " \\\n",
    "3121": "uest",
    "3122": " bas",
    "3123": "echo",
    "3124": "child",
    "3125": "ifier",
    "3126": "Handler",
    "3127": " lib",
    "3128": "Property",
    "3129": "translation",
    "3130": " room",
    "3131": " once",
    "3132": " []",
    "3133": "center",
    "3134": "================================",
    "3135": " results",
    "3136": " continue",
    "3137": " talk",
    "3138": "_get",
    "3139": " grow",
    "3140": ".sw",
    "3141": "eb",
    "3142": " Public",
    "3143": "OP",
    "3144": "ecute",
    "3145": "ols",
    "3146": " **",
    "3147": "\");\n\n",
    "3148": " mass",
    "3149": "ured",
    "3150": ".class",
    "3151": "omic",
    "3152": " mean",
    "3153": "ips",
    "3154": " aut",
    "3155": ");\r\n\r\n",
    "3156": " until",
    "3157": " market",
    "3158": " area",
    "3159": "uit",
    "3160": " length",
    "3161": " With",
    "3162": "structor",
    "3163": "event",
    "3164": "\"><",
    "3165": " Sp",
    "3166": "IV",
    "3167": " mus",
    "3168": "iff",
    "3169": " kind",
    "3170": "author",
    "3171": "ounds",
    "3172": "mb",
    "3173": "_key",
    "3174": "41",
    "3175": "width",
    "3176": "pository",
    "3177": " light",
    "3178": "uk",
    "3179": "Row",
    "3180": "ohn",
    "3181": "alf",
    "3182": "vironment",
    "3183": "apper",
    "3184": "ollections",
    "3185": " side",
    "3186": "_info",
    "3187": " example",
    "3188": "imary",
    "3189": " wr",
    "3190": " camp",
    "3191": "cribe",
    "3192": "255",
    "3193": "\"/",
    "3194": " miss",
    "3195": "way",
    "3196": " based",
    "3197": " plan",
    "3198": "Vis",
    "3199": "omain",
    "3200": "unk",
    "3201": " away",
    "3202": "UP",
    "3203": "<T",
    "3204": "OS",
    "3205": "iod",
    "3206": " Mon",
    "3207": "\u2019re",
    "3208": " lik",
    "3209": "\u00e7",
    "3210": "ively",
    "3211": ".v",
    "3212": "imer",
    "3213": "izer",
    "3214": "Sub",
    "3215": " button",
    "3216": " Up",
    "3217": " experience",
    "3218": "CL",
    "3219": " render",
    "3220": "_value",
    "3221": " near",
    "3222": "URL",
    "3223": "alt",
    "3224": " country",
    "3225": "ibility",
    "3226": "57",
    "3227": "(),\n",
    "3228": "ead",
    "3229": " author",
    "3230": " specific",
    "3231": "base",
    "3232": "(name",
    "3233": "ones",
    "3234": " Do",
    "3235": " along",
    "3236": "year",
    "3237": " express",
    "3238": ".'",
    "3239": "env",
    "3240": " begin",
    "3241": " software",
    "3242": " imp",
    "3243": " win",
    "3244": "\u00f3n",
    "3245": " thing",
    "3246": "Trans",
    "3247": " THE",
    "3248": " <?",
    "3249": " why",
    "3250": " doesn",
    "3251": "ij",
    "3252": "ging",
    "3253": "\tg",
    "3254": " single",
    "3255": "offset",
    "3256": "arning",
    "3257": "ograph",
    "3258": "ley",
    "3259": "_count",
    "3260": " anal",
    "3261": "create",
    "3262": "/m",
    "3263": " Reg",
    "3264": "98",
    "3265": "unch",
    "3266": "=$",
    "3267": "isk",
    "3268": " rights",
    "3269": "(M",
    "3270": " \"\"\"\n",
    "3271": "aper",
    "3272": ".model",
    "3273": " po",
    "3274": "empty",
    "3275": "artment",
    "3276": " ant",
    "3277": " When",
    "3278": " women",
    "3279": " Ed",
    "3280": " season",
    "3281": " dest",
    "3282": "\u00e3",
    "3283": "(h",
    "3284": " possible",
    "3285": " sever",
    "3286": " btn",
    "3287": " didn",
    "3288": " sent",
    "3289": " enc",
    "3290": " command",
    "3291": " ],\n",
    "3292": "_x",
    "3293": " recent",
    "3294": "olution",
    "3295": "vector",
    "3296": " By",
    "3297": " May",
    "3298": " Act",
    "3299": "b'\\xbb\\xbf'",
    "3300": " money",
    "3301": "INT",
    "3302": "bsite",
    "3303": "\tp",
    "3304": ".\r\n",
    "3305": "\ufeff",
    "3306": "sl",
    "3307": "attern",
    "3308": " Class",
    "3309": " told",
    "3310": "udio",
    "3311": "current",
    "3312": " equ",
    "3313": " auto",
    "3314": " State",
    "3315": "da",
    "3316": "msg",
    "3317": "));\n\n",
    "3318": " working",
    "3319": " query",
    "3320": " Br",
    "3321": " window",
    "3322": "auth",
    "3323": "only",
    "3324": "\tt",
    "3325": " least",
    "3326": "agn",
    "3327": " expl",
    "3328": "itter",
    "3329": "aring",
    "3330": " column",
    "3331": " General",
    "3332": "\":\"",
    "3333": "eral",
    "3334": "rior",
    "3335": " record",
    "3336": "IB",
    "3337": "EX",
    "3338": " dat",
    "3339": " making",
    "3340": "ued",
    "3341": " Car",
    "3342": "emp",
    "3343": "\".",
    "3344": " Med",
    "3345": " close",
    "3346": " percent",
    "3347": " past",
    "3348": "(g",
    "3349": ":(",
    "3350": " write",
    "3351": " move",
    "3352": " pat",
    "3353": "Control",
    "3354": ".To",
    "3355": " vi",
    "3356": "*/\n",
    "3357": "inate",
    "3358": "'ll",
    "3359": "aged",
    "3360": "Null",
    "3361": " special",
    "3362": "IZE",
    "3363": " city",
    "3364": "/*\n",
    "3365": " Eng",
    "3366": "ixed",
    "3367": "inary",
    "3368": "py",
    "3369": " eff",
    "3370": "ario",
    "3371": " tell",
    "3372": "avor",
    "3373": " select",
    "3374": "level",
    "3375": "imum",
    "3376": "oper",
    "3377": "Builder",
    "3378": "IP",
    "3379": "'),\n",
    "3380": "esc",
    "3381": " font",
    "3382": "\";\n\n",
    "3383": " Am",
    "3384": "ished",
    "3385": "ills",
    "3386": "Inter",
    "3387": "OW",
    "3388": " course",
    "3389": " late",
    "3390": "iddle",
    "3391": "43",
    "3392": " amount",
    "3393": " async",
    "3394": "ino",
    "3395": "cul",
    "3396": "b' \\xec'",
    "3397": "andle",
    "3398": "_user",
    "3399": " ben",
    "3400": " Cal",
    "3401": " $_",
    "3402": " Rep",
    "3403": " enough",
    "3404": "Token",
    "3405": ".user",
    "3406": "(j",
    "3407": "Sc",
    "3408": "Width",
    "3409": "now",
    "3410": "atform",
    "3411": " looking",
    "3412": " hold",
    "3413": "Module",
    "3414": "ITY",
    "3415": "vo",
    "3416": "ison",
    "3417": ".Data",
    "3418": "yc",
    "3419": " pot",
    "3420": " Trump",
    "3421": "idual",
    "3422": "ides",
    "3423": "rt",
    "3424": " property",
    "3425": "                                           ",
    "3426": "amework",
    "3427": "go",
    "3428": " low",
    "3429": " para",
    "3430": " price",
    "3431": "ury",
    "3432": " today",
    "3433": "roy",
    "3434": " '/",
    "3435": " polit",
    "3436": " ''",
    "3437": "ymb",
    "3438": "Ph",
    "3439": " adv",
    "3440": " attack",
    "3441": " Ste",
    "3442": "ROM",
    "3443": "400",
    "3444": "ana",
    "3445": " means",
    "3446": " story",
    "3447": "ids",
    "3448": "aken",
    "3449": " meet",
    "3450": " mom",
    "3451": " \u2018",
    "3452": " ?>",
    "3453": " den",
    "3454": "obile",
    "3455": "change",
    "3456": "            \n",
    "3457": "ici",
    "3458": "na",
    "3459": " Form",
    "3460": " sort",
    "3461": "Select",
    "3462": "pare",
    "3463": " thought",
    "3464": "_con",
    "3465": " task",
    "3466": "ocus",
    "3467": " DE",
    "3468": " Min",
    "3469": " opt",
    "3470": "\tbreak",
    "3471": "umer",
    "3472": "KE",
    "3473": "then",
    "3474": " det",
    "3475": " Test",
    "3476": "ports",
    "3477": " review",
    "3478": "('/",
    "3479": "move",
    "3480": " switch",
    "3481": "ERT",
    "3482": "patch",
    "3483": "annot",
    "3484": "b'\\xe3\\x82'",
    "3485": " above",
    "3486": "itive",
    "3487": "56",
    "3488": " question",
    "3489": " Qu",
    "3490": "\u3002\n\n",
    "3491": "gle",
    "3492": " word",
    "3493": " provide",
    "3494": " Return",
    "3495": " research",
    "3496": "\u00e3o",
    "3497": "ustr",
    "3498": " publish",
    "3499": "chema",
    "3500": "}}",
    "3501": " CON",
    "3502": "-in",
    "3503": "allback",
    "3504": " cover",
    "3505": "\\\\",
    "3506": "color",
    "3507": " IS",
    "3508": " whether",
    "3509": "imate",
    "3510": "isc",
    "3511": "Bar",
    "3512": " div",
    "3513": "Be",
    "3514": "ourn",
    "3515": " having",
    "3516": "lem",
    "3517": "player",
    "3518": "abs",
    "3519": "amera",
    "3520": "ney",
    "3521": " exc",
    "3522": "gether",
    "3523": "plied",
    "3524": "ao",
    "3525": "[$",
    "3526": " ++",
    "3527": "ipe",
    "3528": "show",
    "3529": "/d",
    "3530": "[:",
    "3531": "agement",
    "3532": "lev",
    "3533": "_ID",
    "3534": "97",
    "3535": "rary",
    "3536": "ades",
    "3537": "_se",
    "3538": "ause",
    "3539": " employ",
    "3540": " */\r\n",
    "3541": " fre",
    "3542": " '@",
    "3543": " complet",
    "3544": " large",
    "3545": "ral",
    "3546": "\\x",
    "3547": " fac",
    "3548": "<String",
    "3549": " created",
    "3550": "uper",
    "3551": ".state",
    "3552": " host",
    "3553": "eneric",
    "3554": "/b",
    "3555": "(!",
    "3556": "while",
    "3557": "ias",
    "3558": "BUG",
    "3559": " );\n\n",
    "3560": " role",
    "3561": "Reg",
    "3562": " Color",
    "3563": "Start",
    "3564": " porn",
    "3565": "top",
    "3566": " web",
    "3567": " dev",
    "3568": " deal",
    "3569": "++)\n",
    "3570": "Integer",
    "3571": "position",
    "3572": ".on",
    "3573": " (\"",
    "3574": "b'\\xe4\\xb8'",
    "3575": " problem",
    "3576": "sv",
    "3577": " press",
    "3578": "ABLE",
    "3579": "ATION",
    "3580": " See",
    "3581": "anch",
    "3582": " though",
    "3583": "leep",
    "3584": " <!--",
    "3585": " points",
    "3586": "                         ",
    "3587": ".J",
    "3588": " ::",
    "3589": "ptr",
    "3590": "DB",
    "3591": "++;\n",
    "3592": ".png",
    "3593": "node",
    "3594": "soft",
    "3595": "pond",
    "3596": " ever",
    "3597": "----------------------------------------------------------------",
    "3598": "Menu",
    "3599": "('#",
    "3600": " services",
    "3601": "pg",
    "3602": "})\n",
    "3603": "params",
    "3604": " actually",
    "3605": " \"/",
    "3606": "Empty",
    "3607": "Method",
    "3608": " ident",
    "3609": "unic",
    "3610": " million",
    "3611": " aff",
    "3612": "style",
    "3613": " conc",
    "3614": "ios",
    "3615": "ignment",
    "3616": "ULT",
    "3617": "Pr",
    "3618": "\";\r\n",
    "3619": " understand",
    "3620": "uary",
    "3621": " happen",
    "3622": " server",
    "3623": " Co",
    "3624": "SC",
    "3625": " les",
    "3626": " files",
    "3627": "Grid",
    "3628": "sql",
    "3629": " often",
    "3630": " info",
    "3631": "_tr",
    "3632": "src",
    "3633": "ony",
    "3634": " space",
    "3635": "umb",
    "3636": " password",
    "3637": " store",
    "3638": ",\n\n",
    "3639": " What",
    "3640": "ged",
    "3641": " False",
    "3642": "Us",
    "3643": "swer",
    "3644": "_index",
    "3645": " format",
    "3646": "most",
    "3647": "sm",
    "3648": "New",
    "3649": " details",
    "3650": " prob",
    "3651": " AND",
    "3652": "()\r\n",
    "3653": "ilar",
    "3654": " ${",
    "3655": "rypt",
    "3656": ".Collections",
    "3657": "$this",
    "3658": " Free",
    "3659": "_of",
    "3660": "(false",
    "3661": "dated",
    "3662": " >>",
    "3663": " face",
    "3664": "CTION",
    "3665": " save",
    "3666": " typ",
    "3667": "dev",
    "3668": "(\"#",
    "3669": "AGE",
    "3670": "container",
    "3671": "edit",
    "3672": "QL",
    "3673": " items",
    "3674": " social",
    "3675": "ien",
    "3676": " React",
    "3677": ").\n\n",
    "3678": " mar",
    "3679": " redu",
    "3680": " RE",
    "3681": ".put",
    "3682": " major",
    "3683": "Cell",
    "3684": "next",
    "3685": " expected",
    "3686": " yet",
    "3687": " indiv",
    "3688": "tributes",
    "3689": "atis",
    "3690": "amed",
    "3691": " food",
    "3692": "Source",
    "3693": "(string",
    "3694": " +\n",
    "3695": "ites",
    "3696": "dr",
    "3697": " members",
    "3698": " comb",
    "3699": "items",
    "3700": " Per",
    "3701": "TH",
    "3702": "=True",
    "3703": " bar",
    "3704": "_SE",
    "3705": "comm",
    "3706": "(w",
    "3707": ")\n\n\n",
    "3708": " send",
    "3709": " inc",
    "3710": "unsigned",
    "3711": "FA",
    "3712": " params",
    "3713": "apping",
    "3714": "ros",
    "3715": "ugin",
    "3716": "fa",
    "3717": " connection",
    "3718": " };\n\n",
    "3719": " become",
    "3720": "Mode",
    "3721": " ev",
    "3722": " diff",
    "3723": " United",
    "3724": "Height",
    "3725": "fully",
    "3726": "images",
    "3727": " makes",
    "3728": " global",
    "3729": " contact",
    "3730": "':\n",
    "3731": " abs",
    "3732": "b'\\xd0\\xb0\\xd0'",
    "3733": "float",
    "3734": " except",
    "3735": " Pol",
    "3736": "Child",
    "3737": "typ",
    "3738": " certain",
    "3739": "i\u00f3n",
    "3740": "OUT",
    "3741": " impro",
    "3742": "iles",
    "3743": " -->\n",
    "3744": " Part",
    "3745": "values",
    "3746": "oss",
    "3747": "/**",
    "3748": "ilit",
    "3749": " Event",
    "3750": "curity",
    "3751": "ster",
    "3752": " character",
    "3753": "198",
    "3754": " news",
    "3755": " \",",
    "3756": " device",
    "3757": "cel",
    "3758": "login",
    "3759": "heet",
    "3760": "Default",
    "3761": "@\"",
    "3762": "\t ",
    "3763": "click",
    "3764": "(value",
    "3765": " Ab",
    "3766": " previous",
    "3767": "ERROR",
    "3768": "ocal",
    "3769": " material",
    "3770": " below",
    "3771": " Christ",
    "3772": " media",
    "3773": "cover",
    "3774": " UI",
    "3775": " fail",
    "3776": " black",
    "3777": " component",
    "3778": " American",
    "3779": " added",
    "3780": " buy",
    "3781": "stit",
    "3782": " came",
    "3783": " delete",
    "3784": "property",
    "3785": "oding",
    "3786": " card",
    "3787": "rops",
    "3788": " https",
    "3789": " root",
    "3790": " handle",
    "3791": "CC",
    "3792": "Back",
    "3793": "emplate",
    "3794": " getting",
    "3795": "_by",
    "3796": "mail",
    "3797": "_sh",
    "3798": ".assert",
    "3799": " Dec",
    "3800": "(true",
    "3801": " comput",
    "3802": " claim",
    "3803": "'=>",
    "3804": " Sub",
    "3805": " air",
    "3806": "ops",
    "3807": "nav",
    "3808": "ements",
    "3809": "(id",
    "3810": " enter",
    "3811": "anged",
    "3812": "End",
    "3813": " location",
    "3814": " night",
    "3815": " doing",
    "3816": " Red",
    "3817": "lin",
    "3818": "}\n\n\n",
    "3819": "vider",
    "3820": " pick",
    "3821": " watch",
    "3822": "essages",
    "3823": " human",
    "3824": " dam",
    "3825": "pend",
    "3826": "dir",
    "3827": " tax",
    "3828": " girl",
    "3829": "reet",
    "3830": " box",
    "3831": " strong",
    "3832": "(v",
    "3833": "rel",
    "3834": " interface",
    "3835": " msg",
    "3836": "fect",
    "3837": "_at",
    "3838": " house",
    "3839": " track",
    "3840": "');\n\n",
    "3841": "je",
    "3842": " John",
    "3843": "istr",
    "3844": "(S",
    "3845": "ube",
    "3846": " ce",
    "3847": "itted",
    "3848": "VER",
    "3849": "*)",
    "3850": "parent",
    "3851": " application",
    "3852": "any",
    "3853": ".swing",
    "3854": " pack",
    "3855": "\\u",
    "3856": " pract",
    "3857": " section",
    "3858": "ctx",
    "3859": " unsigned",
    "3860": ".Point",
    "3861": " One",
    "3862": "\u0131",
    "3863": "iple",
    "3864": "aid",
    "3865": "\u0443",
    "3866": "Vector",
    "3867": "byte",
    "3868": " wait",
    "3869": " \u00e0",
    "3870": "\u00e5",
    "3871": " together",
    "3872": " throws",
    "3873": "FO",
    "3874": "'))",
    "3875": "host",
    "3876": "ising",
    "3877": ".view",
    "3878": " terms",
    "3879": "framework",
    "3880": "-r",
    "3881": " apply",
    "3882": " session",
    "3883": "Options",
    "3884": "uggest",
    "3885": " others",
    "3886": "witter",
    "3887": " fund",
    "3888": "Init",
    "3889": "__(",
    "3890": "ensor",
    "3891": "GET",
    "3892": " several",
    "3893": "ii",
    "3894": "[j",
    "3895": "IO",
    "3896": " template",
    "3897": "Position",
    "3898": " econ",
    "3899": "achine",
    "3900": " il",
    "3901": ".spring",
    "3902": "main",
    "3903": "elt",
    "3904": "iment",
    "3905": "Rec",
    "3906": "mm",
    "3907": " University",
    "3908": "ursor",
    "3909": "                    ",
    "3910": "GL",
    "3911": "icture",
    "3912": "ithub",
    "3913": "cer",
    "3914": "cast",
    "3915": "From",
    "3916": "ales",
    "3917": " subject",
    "3918": "password",
    "3919": "ny",
    "3920": " esc",
    "3921": ".write",
    "3922": "\uff0c",
    "3923": "What",
    "3924": ".H",
    "3925": " history",
    "3926": " Fe",
    "3927": " individual",
    "3928": "unit",
    "3929": " -->",
    "3930": " du",
    "3931": "IST",
    "3932": " users",
    "3933": "fs",
    "3934": "false",
    "3935": "unt",
    "3936": "Title",
    "3937": " mot",
    "3938": " future",
    "3939": "ached",
    "3940": " started",
    "3941": " mode",
    "3942": " '<",
    "3943": "_array",
    "3944": " ax",
    "3945": "'];\n",
    "3946": "ires",
    "3947": "There",
    "3948": "ught",
    "3949": "tml",
    "3950": "posed",
    "3951": "icult",
    "3952": " took",
    "3953": " games",
    "3954": " }}",
    "3955": " ?>\n",
    "3956": " products",
    "3957": "Is",
    "3958": " bad",
    "3959": " Des",
    "3960": ".path",
    "3961": "'\n\n",
    "3962": " Post",
    "3963": "avel",
    "3964": "(:",
    "3965": "150",
    "3966": " needs",
    "3967": " known",
    "3968": "Fl",
    "3969": " exec",
    "3970": " seen",
    "3971": "51",
    "3972": "ume",
    "3973": " border",
    "3974": " live",
    "3975": "temp",
    "3976": "Per",
    "3977": " variable",
    "3978": "iet",
    "3979": " Def",
    "3980": " ge",
    "3981": "eme",
    "3982": "_back",
    "3983": "first",
    "3984": " provided",
    "3985": "////////////////////////////////",
    "3986": " filename",
    "3987": " hope",
    "3988": "uly",
    "3989": "auto",
    "3990": "find",
    "3991": "_string",
    "3992": "btn",
    "3993": "itude",
    "3994": "Attribute",
    "3995": " young",
    "3996": ".txt",
    "3997": " website",
    "3998": " Prop",
    "3999": " ey",
    "4000": ">();\n",
    "4001": "ional",
    "4002": "ARR",
    "4003": "ictionary",
    "4004": "urther",
    "4005": ".</",
    "4006": "ALL",
    "4007": " study",
    "4008": "ili",
    "4009": " network",
    "4010": "yl",
    "4011": "istance",
    "4012": "OK",
    "4013": "NU",
    "4014": "rest",
    "4015": " ST",
    "4016": "icrosoft",
    "4017": " limit",
    "4018": " cut",
    "4019": "():\n",
    "4020": " cou",
    "4021": "ogn",
    "4022": " sizeof",
    "4023": "ival",
    "4024": " went",
    "4025": ".z",
    "4026": "Link",
    "4027": " fire",
    "4028": " across",
    "4029": " community",
    "4030": "region",
    "4031": "NE",
    "4032": "Ref",
    "4033": " official",
    "4034": " visit",
    "4035": "olve",
    "4036": " received",
    "4037": " token",
    "4038": " months",
    "4039": " anim",
    "4040": " particular",
    "4041": "styles",
    "4042": "ico",
    "4043": " ess",
    "4044": "87",
    "4045": ".Control",
    "4046": " \u00e9",
    "4047": "ball",
    "4048": " learn",
    "4049": "inding",
    "4050": "Var",
    "4051": " decl",
    "4052": "(err",
    "4053": "LECT",
    "4054": "One",
    "4055": "pha",
    "4056": " ~",
    "4057": "fort",
    "4058": "asure",
    "4059": " mind",
    "4060": " End",
    "4061": "Check",
    "4062": " quick",
    "4063": "\"),",
    "4064": "AND",
    "4065": "utions",
    "4066": "Base",
    "4067": "________",
    "4068": " comment",
    "4069": "INE",
    "4070": "\u2019ve",
    "4071": "But",
    "4072": " El",
    "4073": " Us",
    "4074": " admin",
    "4075": "mark",
    "4076": " Name",
    "4077": "`\n",
    "4078": " Type",
    "4079": "amic",
    "4080": "pc",
    "4081": "loor",
    "4082": "FT",
    "4083": " opp",
    "4084": "cket",
    "4085": ")->",
    "4086": "tx",
    "4087": " pur",
    "4088": "uel",
    "4089": "ymbol",
    "4090": "uation",
    "4091": "anger",
    "4092": " background",
    "4093": "ecess",
    "4094": "efined",
    "4095": "........",
    "4096": " description",
    "4097": " represent",
    "4098": "\"));\n",
    "4099": "pression",
    "4100": "rowser",
    "4101": " series",
    "4102": "wards",
    "4103": "52",
    "4104": "($_",
    "4105": "aise",
    "4106": " hot",
    "4107": "acity",
    "4108": "ries",
    "4109": "actions",
    "4110": "Create",
    "4111": "adio",
    "4112": "amples",
    "4113": " original",
    "4114": "ensive",
    "4115": "font",
    "4116": "stream",
    "4117": "\ufeffusing",
    "4118": ".springframework",
    "4119": "001",
    "4120": "server",
    "4121": " bill",
    "4122": "ACK",
    "4123": "ilename",
    "4124": " frame",
    "4125": " =\n",
    "4126": "Edit",
    "4127": "adius",
    "4128": " draw",
    "4129": "anks",
    "4130": " deter",
    "4131": " comes",
    "4132": "_int",
    "4133": " foreach",
    "4134": "angle",
    "4135": " elect",
    "4136": "pected",
    "4137": "Header",
    "4138": "istration",
    "4139": "False",
    "4140": " Game",
    "4141": " filter",
    "4142": "Activity",
    "4143": " larg",
    "4144": "inition",
    "4145": " \"<",
    "4146": "256",
    "4147": "ised",
    "4148": " remove",
    "4149": " Trans",
    "4150": "met",
    "4151": "see",
    "4152": "Format",
    "4153": "Command",
    "4154": " EX",
    "4155": "None",
    "4156": " front",
    "4157": "ASE",
    "4158": " Rec",
    "4159": "oundation",
    "4160": " vo",
    "4161": "96",
    "4162": "=\\\"",
    "4163": "(*",
    "4164": "Change",
    "4165": ".Write",
    "4166": "group",
    "4167": "ients",
    "4168": "uy",
    "4169": "****************************************************************",
    "4170": " dig",
    "4171": "hr",
    "4172": "(-",
    "4173": " gen",
    "4174": "number",
    "4175": "vec",
    "4176": "urope",
    "4177": "entry",
    "4178": "LL",
    "4179": " ste",
    "4180": "Valid",
    "4181": "'],",
    "4182": "_param",
    "4183": " selected",
    "4184": " according",
    "4185": " Dis",
    "4186": " util",
    "4187": "Buffer",
    "4188": "_error",
    "4189": " associ",
    "4190": "_SIZE",
    "4191": " wor",
    "4192": " printf",
    "4193": "rag",
    "4194": "\u00a0",
    "4195": "DD",
    "4196": " Val",
    "4197": " activ",
    "4198": "Eng",
    "4199": "etime",
    "4200": " virtual",
    "4201": "aign",
    "4202": "aur",
    "4203": " Pres",
    "4204": " Exception",
    "4205": " anything",
    "4206": " Off",
    "4207": " hours",
    "4208": " war",
    "4209": "Args",
    "4210": "aging",
    "4211": " models",
    "4212": " Time",
    "4213": "Ob",
    "4214": "ams",
    "4215": "joy",
    "4216": " early",
    "4217": ".read",
    "4218": "86",
    "4219": " center",
    "4220": " Initial",
    "4221": " language",
    "4222": "length",
    "4223": "xy",
    "4224": " sn",
    "4225": " inf",
    "4226": "Post",
    "4227": " ago",
    "4228": " easy",
    "4229": "_code",
    "4230": " ANY",
    "4231": "_ch",
    "4232": " download",
    "4233": "(T",
    "4234": "aved",
    "4235": "\u2013",
    "4236": " students",
    "4237": " fig",
    "4238": "light",
    "4239": "xx",
    "4240": " buffer",
    "4241": " Dep",
    "4242": " Math",
    "4243": "ITH",
    "4244": " vari",
    "4245": " due",
    "4246": "Factory",
    "4247": " por",
    "4248": " ep",
    "4249": "otype",
    "4250": " cannot",
    "4251": " white",
    "4252": "<int",
    "4253": "tern",
    "4254": " register",
    "4255": " pred",
    "4256": "clus",
    "4257": "_date",
    "4258": " /**",
    "4259": " auth",
    "4260": " []\n",
    "4261": " period",
    "4262": "nown",
    "4263": " vot",
    "4264": " screen",
    "4265": "'d",
    "4266": "Types",
    "4267": " tmp",
    "4268": "b'\\xd0\\xb5\\xd0'",
    "4269": "ural",
    "4270": " benef",
    "4271": "_y",
    "4272": " net",
    "4273": " States",
    "4274": "']['",
    "4275": " Ne",
    "4276": " NOT",
    "4277": " neg",
    "4278": "102",
    "4279": " common",
    "4280": "scope",
    "4281": " cred",
    "4282": "ges",
    "4283": "_TYPE",
    "4284": " suggest",
    "4285": "oom",
    "4286": ".\n\n\n",
    "4287": " accept",
    "4288": " random",
    "4289": "erm",
    "4290": " Vector",
    "4291": "with",
    "4292": "TER",
    "4293": "(str",
    "4294": " respons",
    "4295": " hit",
    "4296": ".Set",
    "4297": "grid",
    "4298": "ria",
    "4299": " click",
    "4300": "undle",
    "4301": "Case",
    "4302": "insert",
    "4303": "Utils",
    "4304": " \"\"\"",
    "4305": " implement",
    "4306": "atal",
    "4307": "tempt",
    "4308": "template",
    "4309": "ocr",
    "4310": "returns",
    "4311": " players",
    "4312": "users",
    "4313": "edef",
    "4314": " These",
    "4315": " among",
    "4316": " deb",
    "4317": "ha",
    "4318": ".getElement",
    "4319": " circ",
    "4320": " answer",
    "4321": " walk",
    "4322": " treat",
    "4323": " Ge",
    "4324": " Create",
    "4325": " age",
    "4326": " req",
    "4327": "OST",
    "4328": "angular",
    "4329": "\u044f",
    "4330": " five",
    "4331": "53",
    "4332": " distributed",
    "4333": " friend",
    "4334": "TP",
    "4335": " clean",
    "4336": "ows",
    "4337": ".Controls",
    "4338": "dis",
    "4339": " words",
    "4340": ".io",
    "4341": "zy",
    "4342": " header",
    "4343": " Check",
    "4344": "\u2019m",
    "4345": "just",
    "4346": "holder",
    "4347": "=\"<?",
    "4348": " GNU",
    "4349": " Col",
    "4350": "imest",
    "4351": "entic",
    "4352": "{\n\n",
    "4353": " tre",
    "4354": "last",
    "4355": "la",
    "4356": " York",
    "4357": "Lo",
    "4358": " discuss",
    "4359": " God",
    "4360": " issue",
    "4361": "rew",
    "4362": "Window",
    "4363": " land",
    "4364": "120",
    "4365": " stream",
    "4366": " Par",
    "4367": " quality",
    "4368": "Par",
    "4369": "_num",
    "4370": "54",
    "4371": " sal",
    "4372": "elves",
    "4373": "ORD",
    "4374": "(user",
    "4375": " works",
    "4376": " half",
    "4377": "enses",
    "4378": "vas",
    "4379": " police",
    "4380": "(\"/",
    "4381": "ua",
    "4382": " simple",
    "4383": "Address",
    "4384": " empty",
    "4385": "esh",
    "4386": "128",
    "4387": "Update",
    "4388": " Created",
    "4389": "('.",
    "4390": ").\n",
    "4391": "                  ",
    "4392": " agre",
    "4393": " FROM",
    "4394": " cook",
    "4395": " everything",
    "4396": "ilities",
    "4397": ".status",
    "4398": " relations",
    "4399": "extern",
    "4400": " nothing",
    "4401": " running",
    "4402": "\tvoid",
    "4403": "RI",
    "4404": "_a",
    "4405": "_CON",
    "4406": "por",
    "4407": ".sub",
    "4408": "require",
    "4409": " City",
    "4410": " West",
    "4411": " mor",
    "4412": "store",
    "4413": "Equals",
    "4414": "oder",
    "4415": " na",
    "4416": " [[",
    "4417": " ('",
    "4418": " Don",
    "4419": "ERS",
    "4420": "/p",
    "4421": ".json",
    "4422": "abor",
    "4423": " someone",
    "4424": "_text",
    "4425": ".css",
    "4426": ".Tab",
    "4427": " Some",
    "4428": "ato",
    "4429": "double",
    "4430": " share",
    "4431": "(void",
    "4432": "_dir",
    "4433": " ur",
    "4434": "Stack",
    "4435": " World",
    "4436": ".X",
    "4437": "stract",
    "4438": "How",
    "4439": ".Generic",
    "4440": "icles",
    "4441": " entry",
    "4442": " changes",
    "4443": " personal",
    "4444": "(A",
    "4445": " offset",
    "4446": "_ptr",
    "4447": " pie",
    "4448": " Jan",
    "4449": "-group",
    "4450": "module",
    "4451": "Items",
    "4452": " However",
    "4453": "verage",
    "4454": ".Font",
    "4455": " events",
    "4456": ".min",
    "4457": " invol",
    "4458": "za",
    "4459": " whole",
    "4460": " needed",
    "4461": " likely",
    "4462": "rief",
    "4463": "ORM",
    "4464": "version",
    "4465": " fight",
    "4466": " ein",
    "4467": "Frame",
    "4468": "197",
    "4469": "gen",
    "4470": " Out",
    "4471": "avigation",
    "4472": "Length",
    "4473": "illed",
    "4474": "quence",
    "4475": " !==",
    "4476": " Software",
    "4477": " writing",
    "4478": " rate",
    "4479": "'],\n",
    "4480": "Panel",
    "4481": "inner",
    "4482": " [\"",
    "4483": " tw",
    "4484": "cd",
    "4485": " ;\n",
    "4486": "_state",
    "4487": " Sm",
    "4488": " Mark",
    "4489": "))\n\n",
    "4490": "prot",
    "4491": " Mr",
    "4492": "method",
    "4493": "ustomer",
    "4494": "Icon",
    "4495": " correct",
    "4496": "(object",
    "4497": " More",
    "4498": " fall",
    "4499": " vol",
    "4500": " development",
    "4501": "ently",
    "4502": " si",
    "4503": "medi",
    "4504": "ving",
    "4505": "PP",
    "4506": "aker",
    "4507": " indu",
    "4508": " elif",
    "4509": " pret",
    "4510": " believe",
    "4511": "ns",
    "4512": "omet",
    "4513": "123",
    "4514": " Intern",
    "4515": "Rect",
    "4516": "So",
    "4517": ".error",
    "4518": "Read",
    "4519": " features",
    "4520": " minutes",
    "4521": "---",
    "4522": "asing",
    "4523": "cret",
    "4524": "\">\r\n",
    "4525": ".annot",
    "4526": " collection",
    "4527": "'.",
    "4528": " similar",
    "4529": " taken",
    "4530": "(\"%",
    "4531": "Order",
    "4532": "']\n",
    "4533": "-md",
    "4534": " TH",
    "4535": "aced",
    "4536": " isn",
    "4537": "/j",
    "4538": " son",
    "4539": "graph",
    "4540": " Integer",
    "4541": " necess",
    "4542": "reen",
    "4543": " um",
    "4544": " \\<",
    "4545": " moment",
    "4546": " bring",
    "4547": " indic",
    "4548": "ysis",
    "4549": "Level",
    "4550": "verse",
    "4551": "urrenc",
    "4552": "_test",
    "4553": " entire",
    "4554": "Down",
    "4555": " }\n\n\n",
    "4556": "(result",
    "4557": " Read",
    "4558": "\u00e8",
    "4559": "Mod",
    "4560": " trying",
    "4561": "\"),\n",
    "4562": " member",
    "4563": " Cor",
    "4564": "ODO",
    "4565": "-control",
    "4566": "untime",
    "4567": " Sim",
    "4568": "Dialog",
    "4569": "plot",
    "4570": "_on",
    "4571": " phys",
    "4572": "}/",
    "4573": " namespace",
    "4574": "\t\r\n",
    "4575": "acc",
    "4576": "Player",
    "4577": "ARE",
    "4578": "89",
    "4579": " foot",
    "4580": " board",
    "4581": "part",
    "4582": " sus",
    "4583": "wise",
    "4584": " Mc",
    "4585": " push",
    "4586": "ATA",
    "4587": " please",
    "4588": "ried",
    "4589": "weet",
    "4590": "bit",
    "4591": "ided",
    "4592": "VE",
    "4593": " Sw",
    "4594": "UB",
    "4595": " types",
    "4596": "edia",
    "4597": " clos",
    "4598": "acebook",
    "4599": "When",
    "4600": " edit",
    "4601": "igger",
    "4602": " energ",
    "4603": "Container",
    "4604": " phot",
    "4605": " Count",
    "4606": " Europe",
    "4607": ".Is",
    "4608": " Russ",
    "4609": "peed",
    "4610": " Str",
    "4611": " py",
    "4612": " cult",
    "4613": " defined",
    "4614": "ccount",
    "4615": " obt",
    "4616": ".Location",
    "4617": " thread",
    "4618": "ille",
    "4619": " instead",
    "4620": "strong",
    "4621": " Sec",
    "4622": "URE",
    "4623": " idea",
    "4624": ".se",
    "4625": "emy",
    "4626": "selected",
    "4627": "Connection",
    "4628": "acing",
    "4629": "thread",
    "4630": ".next",
    "4631": " coll",
    "4632": " film",
    "4633": "istic",
    "4634": " compet",
    "4635": " conn",
    "4636": "though",
    "4637": " compan",
    "4638": "ocket",
    "4639": " teach",
    "4640": "=(",
    "4641": " phone",
    "4642": " active",
    "4643": "79",
    "4644": "delete",
    "4645": "101",
    "4646": "tries",
    "4647": " mo",
    "4648": " death",
    "4649": "});\n\n",
    "4650": "ocol",
    "4651": "Widget",
    "4652": " article",
    "4653": "rodu",
    "4654": "andid",
    "4655": "\u044b",
    "4656": " Cr",
    "4657": "ka",
    "4658": "():",
    "4659": "lood",
    "4660": "\t\t\t\n",
    "4661": " almost",
    "4662": " sell",
    "4663": "ervlet",
    "4664": "rip",
    "4665": "Unit",
    "4666": " applic",
    "4667": " connect",
    "4668": " feature",
    "4669": " via",
    "4670": "'),",
    "4671": " lim",
    "4672": "                                               ",
    "4673": " Gu",
    "4674": "Engine",
    "4675": " ens",
    "4676": " environment",
    "4677": "block",
    "4678": "HERE",
    "4679": "NULL",
    "4680": "gy",
    "4681": "tag",
    "4682": ")).",
    "4683": "exp",
    "4684": " compl",
    "4685": " install",
    "4686": " complete",
    "4687": "queue",
    "4688": "atural",
    "4689": " general",
    "4690": "thon",
    "4691": " asked",
    "4692": "ores",
    "4693": "(res",
    "4694": " reserved",
    "4695": "SP",
    "4696": " \u2026",
    "4697": "\u0142",
    "4698": " signific",
    "4699": "Off",
    "4700": "                             ",
    "4701": " Ag",
    "4702": " Just",
    "4703": " Error",
    "4704": " infl",
    "4705": "adata",
    "4706": " icon",
    "4707": "asks",
    "4708": "''",
    "4709": "_LO",
    "4710": "?.",
    "4711": "account",
    "4712": " (*",
    "4713": "')\n\n",
    "4714": "rap",
    "4715": "_var",
    "4716": " FOR",
    "4717": " party",
    "4718": " Your",
    "4719": "cat",
    "4720": "stry",
    "4721": ".new",
    "4722": "boot",
    "4723": " Nov",
    "4724": " vector",
    "4725": " normal",
    "4726": " further",
    "4727": "Repository",
    "4728": "800",
    "4729": " database",
    "4730": "attle",
    "4731": " music",
    "4732": " speed",
    "4733": " doc",
    "4734": "process",
    "4735": "IGHT",
    "4736": ".parse",
    "4737": " taking",
    "4738": " viol",
    "4739": "ceed",
    "4740": " After",
    "4741": " forward",
    "4742": " crit",
    "4743": "\"/>\n",
    "4744": "rot",
    "4745": " failed",
    "4746": "efore",
    "4747": " concern",
    "4748": "oe",
    "4749": "ba",
    "4750": " sender",
    "4751": " term",
    "4752": "has",
    "4753": "=\"#",
    "4754": " potential",
    "4755": "Num",
    "4756": " published",
    "4757": ".close",
    "4758": " Image",
    "4759": "straint",
    "4760": "UD",
    "4761": " Ob",
    "4762": " probably",
    "4763": "lim",
    "4764": "\":\n",
    "4765": "olume",
    "4766": " consum",
    "4767": "76",
    "4768": "ague",
    "4769": "ensions",
    "4770": " investig",
    "4771": "-year",
    "4772": "');",
    "4773": "-sm",
    "4774": " enjoy",
    "4775": "orig",
    "4776": "ering",
    "4777": "cp",
    "4778": "leased",
    "4779": "plements",
    "4780": " returns",
    "4781": "pat",
    "4782": "BO",
    "4783": " House",
    "4784": ".Label",
    "4785": " weight",
    "4786": "ighb",
    "4787": " conditions",
    "4788": " exception",
    "4789": "description",
    "4790": " trad",
    "4791": "-to",
    "4792": " {}",
    "4793": " module",
    "4794": "END",
    "4795": ".ap",
    "4796": ".props",
    "4797": " constructor",
    "4798": "aves",
    "4799": " favor",
    "4800": " Now",
    "4801": ";i",
    "4802": " Main",
    "4803": "_k",
    "4804": "eries",
    "4805": "\u2019ll",
    "4806": "transform",
    "4807": "imestamp",
    "4808": "Pre",
    "4809": " mer",
    "4810": ".res",
    "4811": "stant",
    "4812": "Location",
    "4813": "_NAME",
    "4814": " loss",
    "4815": " \n\n",
    "4816": "net",
    "4817": " engine",
    "4818": "Block",
    "4819": " issues",
    "4820": " parse",
    "4821": " Bar",
    "4822": " stay",
    "4823": " JSON",
    "4824": " dom",
    "4825": "airs",
    "4826": "wner",
    "4827": " lower",
    "4828": "\",\r\n",
    "4829": " Dem",
    "4830": "ufact",
    "4831": " ps",
    "4832": " perfect",
    "4833": "RL",
    "4834": " educ",
    "4835": "ls",
    "4836": "emory",
    "4837": "ARRANT",
    "4838": "uge",
    "4839": " exact",
    "4840": ".key",
    "4841": "alled",
    "4842": "ech",
    "4843": "ief",
    "4844": "\\/",
    "4845": "oke",
    "4846": " former",
    "4847": "alloc",
    "4848": " six",
    "4849": "ida",
    "4850": " margin",
    "4851": " heart",
    "4852": "ald",
    "4853": "pack",
    "4854": ".getElementById",
    "4855": " WARRANT",
    "4856": " rather",
    "4857": " building",
    "4858": "erman",
    "4859": "lice",
    "4860": " questions",
    "4861": "izes",
    "4862": "lege",
    "4863": "irectory",
    "4864": " je",
    "4865": " cas",
    "4866": "props",
    "4867": "utf",
    "4868": " security",
    "4869": " however",
    "4870": "weight",
    "4871": " inside",
    "4872": " president",
    "4873": "Char",
    "4874": " WITH",
    "4875": ".map",
    "4876": " graph",
    "4877": " tag",
    "4878": "_status",
    "4879": " attempt",
    "4880": "opp",
    "4881": "uses",
    "4882": "\tconst",
    "4883": " round",
    "4884": ",$",
    "4885": " friends",
    "4886": "Email",
    "4887": "?>",
    "4888": "Resource",
    "4889": "KEY",
    "4890": "osp",
    "4891": ".query",
    "4892": " North",
    "4893": "ables",
    "4894": "istrib",
    "4895": "_class",
    "4896": "ello",
    "4897": "That",
    "4898": "\u043a",
    "4899": "pecially",
    "4900": " President",
    "4901": " campaign",
    "4902": " alt",
    "4903": "area",
    "4904": " chall",
    "4905": " opport",
    "4906": ".Con",
    "4907": " energy",
    "4908": "like",
    "4909": ".string",
    "4910": "ington",
    "4911": ")*",
    "4912": "yy",
    "4913": " profession",
    "4914": "irth",
    "4915": " seg",
    "4916": "b'\\xe6\\x9c'",
    "4917": " hor",
    "4918": "iers",
    "4919": "can",
    "4920": " behind",
    "4921": "Product",
    "4922": "fg",
    "4923": " Sk",
    "4924": ".jpg",
    "4925": "?:",
    "4926": "];\n\n",
    "4927": " callback",
    "4928": " Http",
    "4929": "\u044c",
    "4930": "long",
    "4931": "MS",
    "4932": "ATH",
    "4933": " raise",
    "4934": " wanted",
    "4935": "rown",
    "4936": "utor",
    "4937": "lt",
    "4938": "]=",
    "4939": "eline",
    "4940": "MA",
    "4941": " separ",
    "4942": "cs",
    "4943": "semb",
    "4944": "Dis",
    "4945": "bserv",
    "4946": " Will",
    "4947": " policy",
    "4948": " third",
    "4949": "phone",
    "4950": " bed",
    "4951": "/g",
    "4952": ".__",
    "4953": " Inc",
    "4954": "izing",
    "4955": ".remove",
    "4956": "instance",
    "4957": ".type",
    "4958": " serv",
    "4959": "Each",
    "4960": " har",
    "4961": " Message",
    "4962": "(key",
    "4963": "SELECT",
    "4964": "Pos",
    "4965": "));\r\n",
    "4966": " recomm",
    "4967": " training",
    "4968": " Ent",
    "4969": " Char",
    "4970": "icht",
    "4971": "(file",
    "4972": " prior",
    "4973": "Game",
    "4974": " exit",
    "4975": "Params",
    "4976": ".core",
    "4977": "PC",
    "4978": "nes",
    "4979": "anced",
    "4980": "(request",
    "4981": "Password",
    "4982": "}>\n",
    "4983": " mag",
    "4984": " release",
    "4985": " shall",
    "4986": "udent",
    "4987": " South",
    "4988": "ando",
    "4989": ":'",
    "4990": ".TabIndex",
    "4991": "sk",
    "4992": "anner",
    "4993": "isset",
    "4994": " outside",
    "4995": "ledge",
    "4996": "b' \\xe5'",
    "4997": " Rob",
    "4998": " imm",
    "4999": "!\n",
    "5000": " Web",
    "5001": "Des",
    "5002": "BC",
    "5003": "ancial",
    "5004": "Route",
    "5005": "Dec",
    "5006": "ferences",
    "5007": " purch",
    "5008": " Model",
    "5009": "ctor",
    "5010": "gn",
    "5011": "_start",
    "5012": "_un",
    "5013": ".*",
    "5014": "ises",
    "5015": " ground",
    "5016": " unique",
    "5017": " beaut",
    "5018": "{\"",
    "5019": " pour",
    "5020": " Oct",
    "5021": " tree",
    "5022": "sets",
    "5023": "_res",
    "5024": "')->",
    "5025": "_reg",
    "5026": "(\"\\",
    "5027": " byte",
    "5028": "Bl",
    "5029": " dating",
    "5030": " matter",
    "5031": " Rem",
    "5032": " '../",
    "5033": " Aug",
    "5034": " La",
    "5035": " $(",
    "5036": "ournal",
    "5037": "111",
    "5038": "iam",
    "5039": " shows",
    "5040": "write",
    "5041": " ball",
    "5042": " simply",
    "5043": " fast",
    "5044": " memory",
    "5045": "ASS",
    "5046": " Of",
    "5047": "oved",
    "5048": "ante",
    "5049": "aul",
    "5050": "istry",
    "5051": ")));\n",
    "5052": " fit",
    "5053": "<string",
    "5054": " political",
    "5055": "ancel",
    "5056": "_.",
    "5057": "card",
    "5058": ".current",
    "5059": "och",
    "5060": "_image",
    "5061": "\\t",
    "5062": "#\n",
    "5063": "(L",
    "5064": " industry",
    "5065": "coming",
    "5066": " extra",
    "5067": "600",
    "5068": " reported",
    "5069": ".start",
    "5070": " resources",
    "5071": " img",
    "5072": "flow",
    "5073": "_EX",
    "5074": "(null",
    "5075": " Pre",
    "5076": " wrong",
    "5077": "interface",
    "5078": "Parameter",
    "5079": "ners",
    "5080": "b'\\xe1\\xbb'",
    "5081": "ture",
    "5082": "ersist",
    "5083": "ountry",
    "5084": " seems",
    "5085": "alance",
    "5086": "dest",
    "5087": "\tString",
    "5088": " maint",
    "5089": " unit",
    "5090": "acters",
    "5091": " TR",
    "5092": "iful",
    "5093": "exports",
    "5094": "project",
    "5095": "Application",
    "5096": "legate",
    "5097": " takes",
    "5098": "term",
    "5099": " etc",
    "5100": "uster",
    "5101": " appear",
    "5102": "address",
    "5103": " fem",
    "5104": "hs",
    "5105": " hom",
    "5106": ",-",
    "5107": " difficult",
    "5108": " coming",
    "5109": "Open",
    "5110": " settings",
    "5111": " War",
    "5112": " Then",
    "5113": " autom",
    "5114": " Foundation",
    "5115": " quite",
    "5116": "Description",
    "5117": " blog",
    "5118": "iqu",
    "5119": "PS",
    "5120": "110",
    "5121": "_field",
    "5122": "Json",
    "5123": "SSION",
    "5124": " Sch",
    "5125": " LO",
    "5126": " descri",
    "5127": " everyone",
    "5128": " pretty",
    "5129": " longer",
    "5130": " menu",
    "5131": " currently",
    "5132": "sec",
    "5133": " relationship",
    "5134": "################################",
    "5135": " Map",
    "5136": "aset",
    "5137": " parameters",
    "5138": " crush",
    "5139": "\"\r\n",
    "5140": "ILITY",
    "5141": "igration",
    "5142": " cout",
    "5143": "total",
    "5144": " names",
    "5145": "ndef",
    "5146": "\");",
    "5147": "riend",
    "5148": "ynamic",
    "5149": " effort",
    "5150": " actual",
    "5151": " fields",
    "5152": "OUN",
    "5153": "ters",
    "5154": "250",
    "5155": " fix",
    "5156": "_model",
    "5157": " cases",
    "5158": "CA",
    "5159": "My",
    "5160": "Interface",
    "5161": " SE",
    "5162": "196",
    "5163": "]]",
    "5164": "alle",
    "5165": " National",
    "5166": " ArrayList",
    "5167": "inline",
    "5168": ".V",
    "5169": "ara",
    "5170": "refix",
    "5171": "asc",
    "5172": "Reader",
    "5173": " \u043f",
    "5174": "astic",
    "5175": "(()",
    "5176": "Cl",
    "5177": ".annotation",
    "5178": " performance",
    "5179": "aily",
    "5180": ".toString",
    "5181": ".net",
    "5182": "views",
    "5183": ".end",
    "5184": "ayers",
    "5185": "late",
    "5186": " Apr",
    "5187": "ederal",
    "5188": "'])",
    "5189": ".body",
    "5190": " higher",
    "5191": "_fl",
    "5192": "cr",
    "5193": "alert",
    "5194": "_node",
    "5195": " Google",
    "5196": " itself",
    "5197": "Auth",
    "5198": "urrency",
    "5199": " significant",
    "5200": "append",
    "5201": " respect",
    "5202": "strap",
    "5203": " una",
    "5204": "riteria",
    "5205": "PORT",
    "5206": ".apache",
    "5207": "Output",
    "5208": " progress",
    "5209": " mid",
    "5210": " Microsoft",
    "5211": " resource",
    "5212": "ablish",
    "5213": " dim",
    "5214": ".load",
    "5215": ".App",
    "5216": " direction",
    "5217": " additional",
    "5218": "                        ",
    "5219": " numbers",
    "5220": " companies",
    "5221": ".Th",
    "5222": " sound",
    "5223": "username",
    "5224": " statement",
    "5225": " alert",
    "5226": " contract",
    "5227": "home",
    "5228": "_length",
    "5229": ".Component",
    "5230": "ev",
    "5231": ".Ex",
    "5232": "\uff1a",
    "5233": "\";",
    "5234": " High",
    "5235": " )\n\n",
    "5236": " Point",
    "5237": "oph",
    "5238": " lines",
    "5239": "->_",
    "5240": "\")\n\n",
    "5241": "ox",
    "5242": "application",
    "5243": " ]\n",
    "5244": "\n\n\n\n\n\n",
    "5245": "180",
    "5246": " soon",
    "5247": "ctions",
    "5248": "inger",
    "5249": " join",
    "5250": " Pe",
    "5251": "b' \\xeb'",
    "5252": " las",
    "5253": ".E",
    "5254": "css",
    "5255": "/or",
    "5256": " Start",
    "5257": " TO",
    "5258": " subs",
    "5259": "conn",
    "5260": "components",
    "5261": "DEBUG",
    "5262": "quare",
    "5263": "Function",
    "5264": "endar",
    "5265": ".index",
    "5266": " fill",
    "5267": "\u0119",
    "5268": " choose",
    "5269": "how",
    "5270": " America",
    "5271": "assets",
    "5272": "------------",
    "5273": " Value",
    "5274": " office",
    "5275": " veh",
    "5276": " transform",
    "5277": " Art",
    "5278": " inde",
    "5279": " fn",
    "5280": " implements",
    "5281": "ango",
    "5282": "plete",
    "5283": "+\"",
    "5284": "tmp",
    "5285": "amily",
    "5286": " hash",
    "5287": "missions",
    "5288": "EST",
    "5289": "gt",
    "5290": "Provider",
    "5291": "                      ",
    "5292": " flag",
    "5293": " particip",
    "5294": "den",
    "5295": " Returns",
    "5296": " note",
    "5297": "\u00fcr",
    "5298": "pm",
    "5299": "ideos",
    "5300": " specified",
    "5301": " EN",
    "5302": "ester",
    "5303": "olid",
    "5304": " upon",
    "5305": "(std",
    "5306": "\tv",
    "5307": " '\\",
    "5308": "uz",
    "5309": " vert",
    "5310": " vict",
    "5311": "\tself",
    "5312": " \"$",
    "5313": "85",
    "5314": ".k",
    "5315": " groups",
    "5316": "github",
    "5317": "lang",
    "5318": " mut",
    "5319": "TO",
    "5320": " ve",
    "5321": " Please",
    "5322": ";\n\n\n",
    "5323": "access",
    "5324": " {\"",
    "5325": "rea",
    "5326": " risk",
    "5327": "icker",
    "5328": "oggle",
    "5329": "\twhile",
    "5330": "ANG",
    "5331": ".send",
    "5332": "72",
    "5333": " woman",
    "5334": " gets",
    "5335": " ign",
    "5336": " Id",
    "5337": "_log",
    "5338": "ONE",
    "5339": " evid",
    "5340": " Har",
    "5341": "_sub",
    "5342": " endl",
    "5343": " included",
    "5344": "());\n\n",
    "5345": " Ap",
    "5346": "igr",
    "5347": " sem",
    "5348": " Black",
    "5349": "doc",
    "5350": "_table",
    "5351": "                                                                ",
    "5352": "-up",
    "5353": " cause",
    "5354": " ..",
    "5355": " van",
    "5356": "_dict",
    "5357": " focus",
    "5358": "IND",
    "5359": "CESS",
    "5360": ".Log",
    "5361": " multiple",
    "5362": "ido",
    "5363": " regard",
    "5364": "-M",
    "5365": "andler",
    "5366": "ourse",
    "5367": " deg",
    "5368": ".U",
    "5369": " addition",
    "5370": " various",
    "5371": " receive",
    "5372": "\u0435\u043d",
    "5373": " HT",
    "5374": "Obj",
    "5375": "DF",
    "5376": " increase",
    "5377": " Open",
    "5378": "];",
    "5379": " commit",
    "5380": "?\n",
    "5381": "ategories",
    "5382": "atory",
    "5383": "ship",
    "5384": " Mich",
    "5385": " html",
    "5386": "romise",
    "5387": " leave",
    "5388": " strateg",
    "5389": "aven",
    "5390": " Console",
    "5391": "known",
    "5392": "-n",
    "5393": "_LE",
    "5394": ".component",
    "5395": " bre",
    "5396": "Session",
    "5397": "iance",
    "5398": " align",
    "5399": "typedef",
    "5400": "_result",
    "5401": " WHERE",
    "5402": ".split",
    "5403": " reading",
    "5404": "FAULT",
    "5405": " clo",
    "5406": " notice",
    "5407": "_pr",
    "5408": "arter",
    "5409": " lock",
    "5410": " standard",
    "5411": "etic",
    "5412": "ellow",
    "5413": " padding",
    "5414": " His",
    "5415": " states",
    "5416": "_cast",
    "5417": "(P",
    "5418": "aa",
    "5419": " internal",
    "5420": "ean",
    "5421": " PRO",
    "5422": " Key",
    "5423": " especially",
    "5424": "ming",
    "5425": " cross",
    "5426": " national",
    "5427": "_object",
    "5428": "filter",
    "5429": " script",
    "5430": ".update",
    "5431": "_i",
    "5432": " Assert",
    "5433": "/core",
    "5434": "%%%%",
    "5435": " problems",
    "5436": "istor",
    "5437": " .=",
    "5438": " arch",
    "5439": " written",
    "5440": " milit",
    "5441": "MENT",
    "5442": ".ch",
    "5443": "cape",
    "5444": " Mus",
    "5445": "_config",
    "5446": " API",
    "5447": "foot",
    "5448": " images",
    "5449": "endl",
    "5450": ".In",
    "5451": "First",
    "5452": " platform",
    "5453": ".prot",
    "5454": "Option",
    "5455": "ste",
    "5456": " TODO",
    "5457": " force",
    "5458": ".cont",
    "5459": "\techo",
    "5460": " Dav",
    "5461": "Ptr",
    "5462": "(B",
    "5463": "RT",
    "5464": " Base",
    "5465": "]['",
    "5466": " announc",
    "5467": "console",
    "5468": " Py",
    "5469": "ds",
    "5470": ".as",
    "5471": " prevent",
    "5472": "apan",
    "5473": " {'",
    "5474": "}</",
    "5475": " Service",
    "5476": " Sen",
    "5477": "ador",
    "5478": "profile",
    "5479": "Top",
    "5480": " iter",
    "5481": "po",
    "5482": "IES",
    "5483": "JSON",
    "5484": "IE",
    "5485": "iant",
    "5486": "\u3001",
    "5487": "_j",
    "5488": " Sept",
    "5489": "_map",
    "5490": "bum",
    "5491": "(context",
    "5492": " Home",
    "5493": "ians",
    "5494": "GB",
    "5495": "63",
    "5496": " living",
    "5497": " pattern",
    "5498": "(input",
    "5499": "icient",
    "5500": "999",
    "5501": "Core",
    "5502": " entity",
    "5503": " integ",
    "5504": "Changed",
    "5505": " useful",
    "5506": ".info",
    "5507": " tool",
    "5508": "(item",
    "5509": " ok",
    "5510": " feed",
    "5511": "IX",
    "5512": "\u00e9s",
    "5513": " News",
    "5514": "remove",
    "5515": "erry",
    "5516": "\t\t\t\t\t\t\t\t\t",
    "5517": "ipment",
    "5518": "ares",
    "5519": "Do",
    "5520": "Current",
    "5521": ".content",
    "5522": ".Group",
    "5523": "ustral",
    "5524": " \u0441",
    "5525": "})",
    "5526": " popular",
    "5527": " stre",
    "5528": " methods",
    "5529": "_ERROR",
    "5530": "Left",
    "5531": "cal",
    "5532": "bsp",
    "5533": ".ToString",
    "5534": " dir",
    "5535": " allowed",
    "5536": " impact",
    "5537": "\")]\n",
    "5538": "62",
    "5539": ".config",
    "5540": " elements",
    "5541": " prote",
    "5542": " train",
    "5543": ".tr",
    "5544": "rs",
    "5545": " Republic",
    "5546": " Task",
    "5547": "61",
    "5548": "aries",
    "5549": "(D",
    "5550": "(get",
    "5551": "\u2026\n\n",
    "5552": " related",
    "5553": " vers",
    "5554": " sil",
    "5555": " \"\";\n",
    "5556": " cmd",
    "5557": " technology",
    "5558": ".width",
    "5559": "Float",
    "5560": " Use",
    "5561": "Body",
    "5562": "should",
    "5563": ".join",
    "5564": "Font",
    "5565": "llum",
    "5566": "ycle",
    "5567": " Brit",
    "5568": " mit",
    "5569": " scale",
    "5570": " (_",
    "5571": "ernel",
    "5572": "\"))\n",
    "5573": " score",
    "5574": "/v",
    "5575": " student",
    "5576": "UC",
    "5577": ".show",
    "5578": " average",
    "5579": "Enabled",
    "5580": "(ex",
    "5581": "common",
    "5582": "imation",
    "5583": ":@\"",
    "5584": "chie",
    "5585": " ...\n\n",
    "5586": "river",
    "5587": " March",
    "5588": "category",
    "5589": "fin",
    "5590": " court",
    "5591": "\u0432",
    "5592": "Server",
    "5593": " container",
    "5594": "-st",
    "5595": "_for",
    "5596": " parts",
    "5597": " decision",
    "5598": "obs",
    "5599": "oub",
    "5600": "mitted",
    "5601": " $('#",
    "5602": " saw",
    "5603": " approach",
    "5604": "ICE",
    "5605": " saying",
    "5606": " anyone",
    "5607": "meta",
    "5608": "SD",
    "5609": " song",
    "5610": "display",
    "5611": "Oper",
    "5612": "outes",
    "5613": " channel",
    "5614": " changed",
    "5615": "\u00ea",
    "5616": " finally",
    "5617": "_number",
    "5618": "Please",
    "5619": "b'\\xe0\\xa4'",
    "5620": "oring",
    "5621": "-re",
    "5622": " kill",
    "5623": " drug",
    "5624": "window",
    "5625": " convert",
    "5626": "ombre",
    "5627": " ways",
    "5628": "Helper",
    "5629": " First",
    "5630": "(__",
    "5631": "urity",
    "5632": " Windows",
    "5633": "ees",
    "5634": " mat",
    "5635": "rapper",
    "5636": " plus",
    "5637": "anges",
    "5638": "\"].",
    "5639": "azon",
    "5640": "/t",
    "5641": "lat",
    "5642": "aste",
    "5643": " profile",
    "5644": " ready",
    "5645": "#ifndef",
    "5646": "rote",
    "5647": " sense",
    "5648": "Gener",
    "5649": " Config",
    "5650": "omy",
    "5651": " June",
    "5652": " latest",
    "5653": " saf",
    "5654": " region",
    "5655": " deep",
    "5656": "witch",
    "5657": " Park",
    "5658": "}`",
    "5659": " From",
    "5660": "II",
    "5661": " cv",
    "5662": " reach",
    "5663": " counter",
    "5664": " Work",
    "5665": " URL",
    "5666": " Update",
    "5667": "',\r\n",
    "5668": " immedi",
    "5669": "close",
    "5670": "ados",
    "5671": "ferred",
    "5672": " weeks",
    "5673": "urg",
    "5674": " damage",
    "5675": " lost",
    "5676": "ani",
    "5677": "_lo",
    "5678": " himself",
    "5679": " dog",
    "5680": ")]\n",
    "5681": "b'\\xef\\xbf'",
    "5682": "pir",
    "5683": "tt",
    "5684": " paper",
    "5685": " thems",
    "5686": "second",
    "5687": " staff",
    "5688": " Input",
    "5689": "\"+",
    "5690": " Facebook",
    "5691": " alloc",
    "5692": " sched",
    "5693": "ACE",
    "5694": " themselves",
    "5695": " Component",
    "5696": " driver",
    "5697": "ja",
    "5698": "(path",
    "5699": " category",
    "5700": "alls",
    "5701": "pu",
    "5702": "lluminate",
    "5703": " Action",
    "5704": ".button",
    "5705": " GL",
    "5706": "istics",
    "5707": " oil",
    "5708": " stock",
    "5709": ">'",
    "5710": " dead",
    "5711": "VAL",
    "5712": "QUE",
    "5713": "************************************************************************",
    "5714": " charg",
    "5715": "Return",
    "5716": " ful",
    "5717": "dom",
    "5718": " rules",
    "5719": " modify",
    "5720": " eval",
    "5721": "ham",
    "5722": "atement",
    "5723": "\\<",
    "5724": "ula",
    "5725": "=False",
    "5726": "RA",
    "5727": " contains",
    "5728": "74",
    "5729": " stack",
    "5730": "mar",
    "5731": " {}\n",
    "5732": " undefined",
    "5733": "Ass",
    "5734": " China",
    "5735": "vey",
    "5736": "*\n",
    "5737": " playing",
    "5738": ")/",
    "5739": "actor",
    "5740": " bottom",
    "5741": "lier",
    "5742": " Number",
    "5743": " couple",
    "5744": "DC",
    "5745": " SO",
    "5746": "gor",
    "5747": ".setText",
    "5748": "success",
    "5749": "command",
    "5750": "Filter",
    "5751": " Our",
    "5752": "_item",
    "5753": " ctx",
    "5754": " road",
    "5755": "Version",
    "5756": "case",
    "5757": "urt",
    "5758": "avior",
    "5759": "ych",
    "5760": "sembly",
    "5761": " Product",
    "5762": " held",
    "5763": "afe",
    "5764": " includes",
    "5765": "<quote",
    "5766": " avoid",
    "5767": " Fin",
    "5768": " Mod",
    "5769": " tab",
    "5770": "ano",
    "5771": "\u00f1",
    "5772": "ipping",
    "5773": "-e",
    "5774": " insert",
    "5775": "target",
    "5776": "chan",
    "5777": ".Model",
    "5778": "IME",
    "5779": "\\\n",
    "5780": " machine",
    "5781": "avy",
    "5782": " NO",
    "5783": " Inter",
    "5784": " operation",
    "5785": "modal",
    "5786": "Tag",
    "5787": "]:",
    "5788": " production",
    "5789": " areas",
    "5790": " ren",
    "5791": "_from",
    "5792": "nbsp",
    "5793": " operator",
    "5794": "men",
    "5795": "apped",
    "5796": "_per",
    "5797": "zen",
    "5798": "(\".",
    "5799": ".save",
    "5800": "=\"{{",
    "5801": " tor",
    "5802": "(response",
    "5803": " candid",
    "5804": " conv",
    "5805": "ailed",
    "5806": " Lib",
    "5807": "comp",
    "5808": "ura",
    "5809": "\ufffd",
    "5810": " Here",
    "5811": " argument",
    "5812": "hood",
    "5813": " establish",
    "5814": "ography",
    "5815": " onClick",
    "5816": "ambda",
    "5817": " sch",
    "5818": " movie",
    "5819": " sec",
    "5820": " activity",
    "5821": "\u0627",
    "5822": " sql",
    "5823": "_all",
    "5824": "incip",
    "5825": " provides",
    "5826": " sys",
    "5827": "acket",
    "5828": " wasn",
    "5829": " uses",
    "5830": " Function",
    "5831": ".google",
    "5832": " Result",
    "5833": "84",
    "5834": "Visible",
    "5835": "agma",
    "5836": "elcome",
    "5837": " Sy",
    "5838": " Cent",
    "5839": "ALSE",
    "5840": "aci\u00f3n",
    "5841": "EXT",
    "5842": " license",
    "5843": " Long",
    "5844": " accom",
    "5845": " ability",
    "5846": ".height",
    "5847": "Active",
    "5848": "ological",
    "5849": "oly",
    "5850": ")),",
    "5851": ".Se",
    "5852": " parameter",
    "5853": "prite",
    "5854": "ABILITY",
    "5855": ".service",
    "5856": " Group",
    "5857": "_query",
    "5858": " Item",
    "5859": "ining",
    "5860": " jud",
    "5861": "ims",
    "5862": "fix",
    "5863": "inder",
    "5864": "agram",
    "5865": " functions",
    "5866": " experi",
    "5867": " Em",
    "5868": " rot",
    "5869": " pen",
    "5870": ".btn",
    "5871": " AS",
    "5872": "#ifdef",
    "5873": " choice",
    "5874": " Page",
    "5875": "_PRO",
    "5876": "QU",
    "5877": "b'\\xe5\\x8f'",
    "5878": "antity",
    "5879": "\u00ad",
    "5880": "words",
    "5881": " readonly",
    "5882": " flex",
    "5883": "protected",
    "5884": " Any",
    "5885": " characters",
    "5886": "enced",
    "5887": " July",
    "5888": "iler",
    "5889": "Card",
    "5890": "urance",
    "5891": " rev",
    "5892": ".event",
    "5893": "aly",
    "5894": "130",
    "5895": " wonder",
    "5896": " Port",
    "5897": " legal",
    "5898": "role",
    "5899": " ten",
    "5900": " goes",
    "5901": "MP",
    "5902": "white",
    "5903": "):\r\n",
    "5904": "))\r\n",
    "5905": " reference",
    "5906": " mis",
    "5907": " Project",
    "5908": "icks",
    "5909": ">&",
    "5910": "CON",
    "5911": " repl",
    "5912": " regular",
    "5913": "Storage",
    "5914": "ramework",
    "5915": " goal",
    "5916": " touch",
    "5917": ".widget",
    "5918": " built",
    "5919": "des",
    "5920": "Part",
    "5921": "(re",
    "5922": " worth",
    "5923": "hib",
    "5924": "game",
    "5925": "91",
    "5926": "192",
    "5927": " \u0432",
    "5928": "acion",
    "5929": " White",
    "5930": "(type",
    "5931": "(`",
    "5932": "81",
    "5933": " natural",
    "5934": " inj",
    "5935": " calcul",
    "5936": " April",
    "5937": ".List",
    "5938": " associated",
    "5939": "\tSystem",
    "5940": "~~",
    "5941": "=[",
    "5942": " storage",
    "5943": " bytes",
    "5944": " travel",
    "5945": " sou",
    "5946": " passed",
    "5947": "!=",
    "5948": "ascript",
    "5949": ".open",
    "5950": " grid",
    "5951": " bus",
    "5952": " recogn",
    "5953": "Ab",
    "5954": " hon",
    "5955": " Center",
    "5956": " prec",
    "5957": "build",
    "5958": "73",
    "5959": "HTML",
    "5960": " San",
    "5961": " countries",
    "5962": "aled",
    "5963": "token",
    "5964": "kt",
    "5965": " qual",
    "5966": "Last",
    "5967": "adow",
    "5968": " manufact",
    "5969": "idad",
    "5970": "jango",
    "5971": "Next",
    "5972": "xf",
    "5973": ".a",
    "5974": " porno",
    "5975": " PM",
    "5976": "erve",
    "5977": "iting",
    "5978": "_th",
    "5979": "ci",
    "5980": "=None",
    "5981": "gs",
    "5982": " login",
    "5983": "atives",
    "5984": "']);\n",
    "5985": "\u0105",
    "5986": " ill",
    "5987": "IA",
    "5988": "children",
    "5989": "DO",
    "5990": " levels",
    "5991": " {{",
    "5992": " looks",
    "5993": " \"#",
    "5994": "ToString",
    "5995": " necessary",
    "5996": "   \n",
    "5997": "cell",
    "5998": "Entry",
    "5999": " '#",
    "6000": " extrem",
    "6001": "Selector",
    "6002": " placeholder",
    "6003": "Load",
    "6004": " released",
    "6005": "ORE",
    "6006": "Enumer",
    "6007": " TV",
    "6008": "SET",
    "6009": "inq",
    "6010": "Press",
    "6011": " Department",
    "6012": " properties",
    "6013": " respond",
    "6014": "Search",
    "6015": "ael",
    "6016": " requ",
    "6017": " Book",
    "6018": "/\n",
    "6019": "(st",
    "6020": " financial",
    "6021": "icket",
    "6022": "_input",
    "6023": " threat",
    "6024": "(in",
    "6025": "Strip",
    "6026": "b'\\xec\\x9d'",
    "6027": "\u00e7\u00e3o",
    "6028": "71",
    "6029": " evidence",
    "6030": "));",
    "6031": " Bro",
    "6032": " [];\n",
    "6033": " ou",
    "6034": "buf",
    "6035": "Script",
    "6036": "dat",
    "6037": " rule",
    "6038": "#import",
    "6039": "=\"/",
    "6040": "Serial",
    "6041": " starting",
    "6042": "[index",
    "6043": "ae",
    "6044": " contrib",
    "6045": "session",
    "6046": "_new",
    "6047": "utable",
    "6048": "ober",
    "6049": " \"./",
    "6050": " logger",
    "6051": " recently",
    "6052": " returned",
    "6053": "\r\r\n",
    "6054": ")))\n",
    "6055": "itions",
    "6056": " seek",
    "6057": " communic",
    "6058": " \".",
    "6059": " username",
    "6060": "ECT",
    "6061": "DS",
    "6062": " otherwise",
    "6063": " German",
    "6064": ".aw",
    "6065": "Adapter",
    "6066": "ixel",
    "6067": " systems",
    "6068": " drop",
    "6069": "83",
    "6070": " structure",
    "6071": " $(\"#",
    "6072": "encies",
    "6073": "anning",
    "6074": " Link",
    "6075": " Response",
    "6076": " stri",
    "6077": "\u017c",
    "6078": " DB",
    "6079": "b'\\xe6\\x97'",
    "6080": "android",
    "6081": "submit",
    "6082": "otion",
    "6083": "92",
    "6084": "(@",
    "6085": ".test",
    "6086": "82",
    "6087": "\n\n\n\n\n\n\n\n",
    "6088": "];\r\n",
    "6089": " directly",
    "6090": " \"%",
    "6091": "ris",
    "6092": "elta",
    "6093": "AIL",
    "6094": "){\r\n",
    "6095": "mine",
    "6096": "                          ",
    "6097": "(k",
    "6098": "bon",
    "6099": "asic",
    "6100": "pite",
    "6101": "___",
    "6102": "Max",
    "6103": " errors",
    "6104": " While",
    "6105": " arguments",
    "6106": " ensure",
    "6107": "Right",
    "6108": "-based",
    "6109": "Web",
    "6110": " -=",
    "6111": " introdu",
    "6112": " Inst",
    "6113": " Wash",
    "6114": "ordin",
    "6115": "join",
    "6116": "Database",
    "6117": " grad",
    "6118": " usually",
    "6119": "ITE",
    "6120": "Props",
    "6121": "?>\n",
    "6122": " Go",
    "6123": "@Override",
    "6124": "REF",
    "6125": " ip",
    "6126": " Austral",
    "6127": " ist",
    "6128": "ViewById",
    "6129": " serious",
    "6130": " customer",
    "6131": ".prototype",
    "6132": "odo",
    "6133": "cor",
    "6134": " door",
    "6135": " WITHOUT",
    "6136": " plant",
    "6137": " began",
    "6138": " distance",
    "6139": "()).",
    "6140": " chance",
    "6141": " ord",
    "6142": "came",
    "6143": "pragma",
    "6144": " protect",
    "6145": "ragment",
    "6146": " Node",
    "6147": "ening",
    "6148": "\u0447",
    "6149": " route",
    "6150": " School",
    "6151": "hi",
    "6152": " neighb",
    "6153": "After",
    "6154": "licit",
    "6155": " contr",
    "6156": " primary",
    "6157": "AA",
    "6158": ".WriteLine",
    "6159": "utils",
    "6160": " bi",
    "6161": "Red",
    "6162": ".Linq",
    "6163": ".object",
    "6164": " leaders",
    "6165": "unities",
    "6166": " gun",
    "6167": "onth",
    "6168": " Dev",
    "6169": "FILE",
    "6170": " comments",
    "6171": "_len",
    "6172": "arrow",
    "6173": "amount",
    "6174": "Range",
    "6175": "sert",
    "6176": "GridView",
    "6177": " updated",
    "6178": " Mo",
    "6179": " inform",
    "6180": "ociety",
    "6181": "ala",
    "6182": "Access",
    "6183": " hab",
    "6184": " creat",
    "6185": "_arg",
    "6186": " January",
    "6187": " Day",
    "6188": "\")\r\n",
    "6189": "uple",
    "6190": "document",
    "6191": "gorith",
    "6192": "menu",
    "6193": " Over",
    "6194": "bb",
    "6195": ".title",
    "6196": "_out",
    "6197": " led",
    "6198": "uri",
    "6199": " ?></",
    "6200": "gl",
    "6201": " bank",
    "6202": "ayment",
    "6203": "\tprintf",
    "6204": "MD",
    "6205": " sample",
    "6206": " hands",
    "6207": " Version",
    "6208": "uario",
    "6209": " offers",
    "6210": "ityEngine",
    "6211": " shape",
    "6212": " sleep",
    "6213": "_point",
    "6214": "Settings",
    "6215": " achie",
    "6216": " sold",
    "6217": "ota",
    "6218": ".bind",
    "6219": "Am",
    "6220": " safe",
    "6221": "Store",
    "6222": " shared",
    "6223": " priv",
    "6224": "_VAL",
    "6225": " sens",
    "6226": "){",
    "6227": " remember",
    "6228": "shared",
    "6229": "element",
    "6230": " shoot",
    "6231": "Vert",
    "6232": "cout",
    "6233": " env",
    "6234": "_label",
    "6235": " >\n",
    "6236": "run",
    "6237": " scene",
    "6238": "(array",
    "6239": "device",
    "6240": "_title",
    "6241": "agon",
    "6242": "]\r\n",
    "6243": "aby",
    "6244": " became",
    "6245": "boolean",
    "6246": " park",
    "6247": " Code",
    "6248": "upload",
    "6249": "riday",
    "6250": " September",
    "6251": "Fe",
    "6252": " sen",
    "6253": "cing",
    "6254": "FL",
    "6255": "Col",
    "6256": "uts",
    "6257": "_page",
    "6258": "inn",
    "6259": " implied",
    "6260": "aling",
    "6261": " yourself",
    "6262": ".Count",
    "6263": "conf",
    "6264": " aud",
    "6265": "_init",
    "6266": ".)",
    "6267": " wrote",
    "6268": "003",
    "6269": "NG",
    "6270": ".Error",
    "6271": "b'\\xe4\\xbb'",
    "6272": ".for",
    "6273": " equal",
    "6274": " Request",
    "6275": " serial",
    "6276": " allows",
    "6277": "XX",
    "6278": " middle",
    "6279": "chor",
    "6280": "195",
    "6281": "94",
    "6282": "\u00f8",
    "6283": "erval",
    "6284": ".Column",
    "6285": "reading",
    "6286": " escort",
    "6287": " August",
    "6288": " quickly",
    "6289": " weap",
    "6290": " CG",
    "6291": "ropri",
    "6292": "ho",
    "6293": " cop",
    "6294": "(struct",
    "6295": " Big",
    "6296": " vs",
    "6297": " frequ",
    "6298": ".Value",
    "6299": " actions",
    "6300": " proper",
    "6301": " inn",
    "6302": " objects",
    "6303": " matrix",
    "6304": "avascript",
    "6305": " ones",
    "6306": ".group",
    "6307": " green",
    "6308": " paint",
    "6309": "ools",
    "6310": "ycl",
    "6311": "encode",
    "6312": "olt",
    "6313": "comment",
    "6314": ".api",
    "6315": "Dir",
    "6316": " une",
    "6317": "izont",
    "6318": ".position",
    "6319": " designed",
    "6320": "_val",
    "6321": "avi",
    "6322": "iring",
    "6323": "tab",
    "6324": " layer",
    "6325": " views",
    "6326": " reve",
    "6327": "rael",
    "6328": " ON",
    "6329": "rics",
    "6330": "160",
    "6331": "np",
    "6332": " core",
    "6333": "());\r\n",
    "6334": "Main",
    "6335": " expert",
    "6336": "\t\t\r\n",
    "6337": "_en",
    "6338": " />",
    "6339": "utter",
    "6340": "IAL",
    "6341": "ails",
    "6342": " King",
    "6343": "*/\n\n",
    "6344": " Met",
    "6345": "_end",
    "6346": "addr",
    "6347": "ora",
    "6348": " ir",
    "6349": "Min",
    "6350": " surpr",
    "6351": " repe",
    "6352": " directory",
    "6353": "PUT",
    "6354": "-S",
    "6355": " election",
    "6356": "haps",
    "6357": ".pre",
    "6358": "cm",
    "6359": "Values",
    "6360": " \"\n",
    "6361": "column",
    "6362": "ivil",
    "6363": "Login",
    "6364": "inue",
    "6365": "93",
    "6366": " beautiful",
    "6367": " secret",
    "6368": "(event",
    "6369": " chat",
    "6370": "ums",
    "6371": " origin",
    "6372": " effects",
    "6373": " management",
    "6374": "illa",
    "6375": "tk",
    "6376": " setting",
    "6377": " Cour",
    "6378": " massage",
    "6379": "\tend",
    "6380": " happy",
    "6381": " finish",
    "6382": " camera",
    "6383": " Ver",
    "6384": " Democr",
    "6385": " Her",
    "6386": "(Q",
    "6387": "cons",
    "6388": "ita",
    "6389": " '.",
    "6390": "{}",
    "6391": "\tC",
    "6392": " stuff",
    "6393": "194",
    "6394": " :\n",
    "6395": " AR",
    "6396": "Task",
    "6397": "hidden",
    "6398": "eros",
    "6399": "IGN",
    "6400": "atio",
    "6401": " Health",
    "6402": "olute",
    "6403": "Enter",
    "6404": "'>",
    "6405": " Twitter",
    "6406": " County",
    "6407": "scribe",
    "6408": " =>\n",
    "6409": " hy",
    "6410": "fit",
    "6411": " military",
    "6412": " sale",
    "6413": "required",
    "6414": "non",
    "6415": "bootstrap",
    "6416": "hold",
    "6417": "rim",
    "6418": "-old",
    "6419": " Down",
    "6420": " mention",
    "6421": "contact",
    "6422": "_group",
    "6423": "oday",
    "6424": " town",
    "6425": " solution",
    "6426": "uate",
    "6427": "elling",
    "6428": "]->",
    "6429": "otes",
    "6430": "ental",
    "6431": "omen",
    "6432": "ospital",
    "6433": " Sup",
    "6434": "_EN",
    "6435": " slow",
    "6436": "SESSION",
    "6437": " blue",
    "6438": "ago",
    "6439": " lives",
    "6440": " ^",
    "6441": ".un",
    "6442": "inst",
    "6443": "enge",
    "6444": " customers",
    "6445": " cast",
    "6446": "udget",
    "6447": "\uff01",
    "6448": "icens",
    "6449": " determin",
    "6450": "Selected",
    "6451": "_pl",
    "6452": "ueue",
    "6453": " dark",
    "6454": "//\n\n",
    "6455": "si",
    "6456": "thern",
    "6457": " Japan",
    "6458": "/w",
    "6459": "PU",
    "6460": " East",
    "6461": "ovie",
    "6462": " package",
    "6463": " nor",
    "6464": " api",
    "6465": "bot",
    "6466": "\"];\n",
    "6467": "_post",
    "6468": "ulate",
    "6469": " club",
    "6470": "'));\n",
    "6471": " loop",
    "6472": "PIO",
    "6473": "ione",
    "6474": "shot",
    "6475": "Initial",
    "6476": " played",
    "6477": "register",
    "6478": "rought",
    "6479": "_max",
    "6480": "acement",
    "6481": "match",
    "6482": "raphics",
    "6483": "AST",
    "6484": " existing",
    "6485": " complex",
    "6486": "DA",
    "6487": ".Ch",
    "6488": ".common",
    "6489": "mo",
    "6490": " '../../",
    "6491": "ito",
    "6492": " analysis",
    "6493": " deliver",
    "6494": "                \n",
    "6495": "idx",
    "6496": "\u00e0",
    "6497": "ongo",
    "6498": " English",
    "6499": "<!--",
    "6500": " computer",
    "6501": "ENSE",
    "6502": " pas",
    "6503": " rais",
    "6504": "Hash",
    "6505": " mobile",
    "6506": " owner",
    "6507": "FIG",
    "6508": "                                                   ",
    "6509": "thes",
    "6510": " attr",
    "6511": "wd",
    "6512": ".time",
    "6513": "awn",
    "6514": " treatment",
    "6515": " Ac",
    "6516": ".View",
    "6517": "impl",
    "6518": "more",
    "6519": "pass",
    "6520": " ha",
    "6521": ".from",
    "6522": " leading",
    "6523": "FFFF",
    "6524": "(error",
    "6525": ".ui",
    "6526": "atar",
    "6527": "aders",
    "6528": "dates",
    "6529": " zu",
    "6530": " flow",
    "6531": "Target",
    "6532": " involved",
    "6533": " io",
    "6534": "parse",
    "6535": "$_",
    "6536": "hest",
    "6537": ".int",
    "6538": "-item",
    "6539": "asy",
    "6540": "Sp",
    "6541": " shift",
    "6542": "NT",
    "6543": " tf",
    "6544": "_TR",
    "6545": ".web",
    "6546": "CS",
    "6547": " })",
    "6548": " eyes",
    "6549": "125",
    "6550": "105",
    "6551": "_z",
    "6552": "');\r\n",
    "6553": "iforn",
    "6554": " {@",
    "6555": " nice",
    "6556": ".list",
    "6557": "    \r\n",
    "6558": " floor",
    "6559": " redirect",
    "6560": " UK",
    "6561": "(['",
    "6562": " wish",
    "6563": " capt",
    "6564": "legal",
    "6565": " IO",
    "6566": " stage",
    "6567": ".String",
    "6568": " Afr",
    "6569": "igen",
    "6570": " SH",
    "6571": "Delete",
    "6572": "ells",
    "6573": " solid",
    "6574": " meeting",
    "6575": " worked",
    "6576": " editor",
    "6577": "iny",
    "6578": "\u043c",
    "6579": "_read",
    "6580": ".Id",
    "6581": "eff",
    "6582": "Offset",
    "6583": "cha",
    "6584": "USER",
    "6585": "\t\t   ",
    "6586": "ipped",
    "6587": " dict",
    "6588": " Run",
    "6589": ".hpp",
    "6590": " ang",
    "6591": "xml",
    "6592": "imple",
    "6593": " medical",
    "6594": "_token",
    "6595": "connect",
    "6596": " hour",
    "6597": " controller",
    "6598": "_message",
    "6599": "UID",
    "6600": "Gr",
    "6601": "anded",
    "6602": "_CH",
    "6603": " books",
    "6604": " speak",
    "6605": "aming",
    "6606": " mount",
    "6607": "Record",
    "6608": "\tstruct",
    "6609": ".Web",
    "6610": "ondon",
    "6611": " //\n",
    "6612": " felt",
    "6613": ".Auto",
    "6614": "idge",
    "6615": "_pos",
    "6616": "PR",
    "6617": " modern",
    "6618": "Collection",
    "6619": "_msg",
    "6620": "CD",
    "6621": " Lo",
    "6622": " seconds",
    "6623": "ibly",
    "6624": ".equals",
    "6625": " international",
    "6626": "#pragma",
    "6627": "ooth",
    "6628": "Writer",
    "6629": "iate",
    "6630": " cele",
    "6631": " Bit",
    "6632": "ivo",
    "6633": "ivery",
    "6634": "rd",
    "6635": "HECK",
    "6636": " cache",
    "6637": ".count",
    "6638": " roll",
    "6639": ".Read",
    "6640": "108",
    "6641": "RED",
    "6642": " setup",
    "6643": "izontal",
    "6644": "models",
    "6645": "argv",
    "6646": " considered",
    "6647": "=\"../",
    "6648": "settings",
    "6649": " Rel",
    "6650": " growth",
    "6651": " mix",
    "6652": " Washington",
    "6653": " plt",
    "6654": " IM",
    "6655": "b'\\xe1\\xba'",
    "6656": " turned",
    "6657": " DateTime",
    "6658": " Wed",
    "6659": "(url",
    "6660": " \"-",
    "6661": " letter",
    "6662": "Async",
    "6663": "                            ",
    "6664": " October",
    "6665": "_line",
    "6666": " attention",
    "6667": " collect",
    "6668": " Hash",
    "6669": " imag",
    "6670": "Tree",
    "6671": " situation",
    "6672": "ette",
    "6673": "_no",
    "6674": "IVE",
    "6675": " von",
    "6676": ".target",
    "6677": " knowledge",
    "6678": " drive",
    "6679": ".post",
    "6680": " blood",
    "6681": " cit",
    "6682": "primary",
    "6683": " configuration",
    "6684": "tee",
    "6685": " photo",
    "6686": "isode",
    "6687": "Trace",
    "6688": " gave",
    "6689": " shot",
    "6690": " Air",
    "6691": " mother",
    "6692": "price",
    "6693": " morning",
    "6694": ")){\n",
    "6695": "-x",
    "6696": " trade",
    "6697": " desc",
    "6698": " &&\n",
    "6699": " parents",
    "6700": "Api",
    "6701": "b'\\xe5\\x88'",
    "6702": "ted",
    "6703": "wer",
    "6704": "b' \\xe6'",
    "6705": " sy",
    "6706": " Ke",
    "6707": "Parser",
    "6708": "b'\\xe5\\x85'",
    "6709": "ancy",
    "6710": " piece",
    "6711": "ifornia",
    "6712": "toString",
    "6713": "ran",
    "6714": "iding",
    "6715": "PTION",
    "6716": "comes",
    "6717": "/lic",
    "6718": ".client",
    "6719": "El",
    "6720": "Long",
    "6721": " professional",
    "6722": "rupt",
    "6723": "va",
    "6724": " completely",
    "6725": " practice",
    "6726": "002",
    "6727": " selection",
    "6728": "Rem",
    "6729": "ini",
    "6730": " cam",
    "6731": "REE",
    "6732": " sites",
    "6733": "pa",
    "6734": "ATUS",
    "6735": "\u0441\u0442",
    "6736": "arrant",
    "6737": "*(",
    "6738": "_KEY",
    "6739": " Button",
    "6740": " Friday",
    "6741": "sequ",
    "6742": " reader",
    "6743": " messages",
    "6744": "b'\\xe8\\xaf'",
    "6745": " buf",
    "6746": "Ke",
    "6747": " nov",
    "6748": "HP",
    "6749": "Msg",
    "6750": "align",
    "6751": "arily",
    "6752": " ',",
    "6753": "_with",
    "6754": " das",
    "6755": " heard",
    "6756": "atomic",
    "6757": "rial",
    "6758": ")[",
    "6759": " dise",
    "6760": "@end",
    "6761": " gold",
    "6762": " fair",
    "6763": " sales",
    "6764": ".Button",
    "6765": "strict",
    "6766": "save",
    "6767": " measure",
    "6768": " \"+",
    "6769": "ecause",
    "6770": "ViewController",
    "6771": " Table",
    "6772": ".param",
    "6773": " decided",
    "6774": "(((",
    "6775": "INFO",
    "6776": " opportunity",
    "6777": "Te",
    "6778": "ICENSE",
    "6779": "ccording",
    "6780": "ki",
    "6781": " UN",
    "6782": " contain",
    "6783": " manager",
    "6784": " pain",
    "6785": " Fire",
    "6786": "rome",
    "6787": " plans",
    "6788": "Found",
    "6789": "lay",
    "6790": " December",
    "6791": " influ",
    "6792": "\u00fa",
    "6793": "rench",
    "6794": "                                 ",
    "6795": "azing",
    "6796": "brief",
    "6797": "call",
    "6798": "wood",
    "6799": " loaded",
    "6800": " grand",
    "6801": "/f",
    "6802": "imp",
    "6803": "_U",
    "6804": "127",
    "6805": "STR",
    "6806": "\u2022",
    "6807": " credit",
    "6808": ".Color",
    "6809": "orge",
    "6810": "QUEST",
    "6811": " difference",
    "6812": " PC",
    "6813": "wargs",
    "6814": " pub",
    "6815": "unday",
    "6816": " fra",
    "6817": ".max",
    "6818": " tried",
    "6819": "annels",
    "6820": "send",
    "6821": " reports",
    "6822": " adult",
    "6823": "b'\\xe4\\xba'",
    "6824": " consist",
    "6825": " Street",
    "6826": " Program",
    "6827": "SQL",
    "6828": "Matrix",
    "6829": "ouncil",
    "6830": "-A",
    "6831": "\tw",
    "6832": " whose",
    "6833": " relig",
    "6834": " Sex",
    "6835": " gives",
    "6836": "none",
    "6837": ".message",
    "6838": "(G",
    "6839": ".awt",
    "6840": "-right",
    "6841": " November",
    "6842": "ellig",
    "6843": "360",
    "6844": "utive",
    "6845": "\u0103",
    "6846": "overn",
    "6847": " easily",
    "6848": " ideas",
    "6849": "104",
    "6850": " \u043d",
    "6851": "/css",
    "6852": "lying",
    "6853": "elle",
    "6854": "Can",
    "6855": "_color",
    "6856": "\u043e\u0432",
    "6857": " pair",
    "6858": "ngth",
    "6859": " split",
    "6860": "140",
    "6861": "drop",
    "6862": "arty",
    "6863": "ona",
    "6864": " capital",
    "6865": " hear",
    "6866": " exists",
    "6867": "\tlog",
    "6868": "emo",
    "6869": "Run",
    "6870": "oi",
    "6871": " parser",
    "6872": " Method",
    "6873": " education",
    "6874": "[k",
    "6875": " library",
    "6876": ">\";\n",
    "6877": "_UN",
    "6878": "\tstd",
    "6879": "oded",
    "6880": " calls",
    "6881": "here",
    "6882": "Rel",
    "6883": " brand",
    "6884": "background",
    "6885": "ga",
    "6886": "_address",
    "6887": "_params",
    "6888": "Category",
    "6889": "103",
    "6890": " India",
    "6891": "_event",
    "6892": " ing",
    "6893": "Render",
    "6894": ".cl",
    "6895": "umpy",
    "6896": " pet",
    "6897": "FC",
    "6898": " Ant",
    "6899": "Ext",
    "6900": " charge",
    "6901": "ened",
    "6902": "grad",
    "6903": "EO",
    "6904": " depend",
    "6905": " .\n\n",
    "6906": "frame",
    "6907": " df",
    "6908": " huge",
    "6909": " PART",
    "6910": "eds",
    "6911": ";;",
    "6912": " AM",
    "6913": " basic",
    "6914": " Let",
    "6915": "lich",
    "6916": " arm",
    "6917": " star",
    "6918": " federal",
    "6919": "Work",
    "6920": " carry",
    "6921": " Israel",
    "6922": "(obj",
    "6923": "={{",
    "6924": " saved",
    "6925": " syn",
    "6926": " constant",
    "6927": "VENT",
    "6928": " positive",
    "6929": " conduct",
    "6930": " skin",
    "6931": " earlier",
    "6932": " layout",
    "6933": " IP",
    "6934": "OUR",
    "6935": " tim",
    "6936": "stylesheet",
    "6937": "_cl",
    "6938": " Card",
    "6939": "++){\n",
    "6940": " temper",
    "6941": " David",
    "6942": "\ttry",
    "6943": ".dart",
    "6944": " wants",
    "6945": " picture",
    "6946": " videos",
    "6947": " Comm",
    "6948": "isions",
    "6949": "_MAX",
    "6950": "Mapping",
    "6951": "-content",
    "6952": " Ear",
    "6953": "-de",
    "6954": " prem",
    "6955": "bruary",
    "6956": " components",
    "6957": " throughout",
    "6958": " pull",
    "6959": " pages",
    "6960": "ente",
    "6961": "respond",
    "6962": " gas",
    "6963": "criptor",
    "6964": " edge",
    "6965": " bound",
    "6966": "ACT",
    "6967": "******",
    "6968": " creating",
    "6969": " CH",
    "6970": " nullptr",
    "6971": "Br",
    "6972": "+'",
    "6973": ".co",
    "6974": ">::",
    "6975": " learning",
    "6976": ".Length",
    "6977": "_SH",
    "6978": " patients",
    "6979": "AIN",
    "6980": " kids",
    "6981": " comfort",
    "6982": " shown",
    "6983": "ugins",
    "6984": " Back",
    "6985": "ella",
    "6986": "_CL",
    "6987": " lat",
    "6988": " dispatch",
    "6989": " classes",
    "6990": ".at",
    "6991": ".begin",
    "6992": " successful",
    "6993": "ban",
    "6994": " obtain",
    "6995": " Sl",
    "6996": " lack",
    "6997": "iterator",
    "6998": "Thread",
    "6999": "(size",
    "7000": " none",
    "7001": ".has",
    "7002": "_X",
    "7003": "sort",
    "7004": "nap",
    "7005": "pet",
    "7006": "bin",
    "7007": "700",
    "7008": " Canada",
    "7009": "They",
    "7010": " dans",
    "7011": " Mat",
    "7012": "<td",
    "7013": " hair",
    "7014": " '',\n",
    "7015": " cu",
    "7016": " laws",
    "7017": "leted",
    "7018": "ped",
    "7019": " pow",
    "7020": " knew",
    "7021": "_COM",
    "7022": "_,",
    "7023": " Mag",
    "7024": "idents",
    "7025": "(req",
    "7026": " ),",
    "7027": "-center",
    "7028": "190",
    "7029": " wide",
    "7030": " Author",
    "7031": "stants",
    "7032": " jobs",
    "7033": " math",
    "7034": "etimes",
    "7035": "Boolean",
    "7036": " scope",
    "7037": "_is",
    "7038": " meas",
    "7039": " keys",
    "7040": "elay",
    "7041": " exactly",
    "7042": "'=>'",
    "7043": " Paul",
    "7044": "mas",
    "7045": "\tprint",
    "7046": "(len",
    "7047": "fd",
    "7048": " );",
    "7049": ".Event",
    "7050": "qli",
    "7051": "irit",
    "7052": "ields",
    "7053": "oman",
    "7054": " Top",
    "7055": " vote",
    "7056": " mask",
    "7057": " theme",
    "7058": "-\n",
    "7059": " props",
    "7060": " fine",
    "7061": " writer",
    "7062": "_offset",
    "7063": "car",
    "7064": " altern",
    "7065": " copyright",
    "7066": " destroy",
    "7067": "pper",
    "7068": " generate",
    "7069": "pped",
    "7070": "\u2019d",
    "7071": "      \n",
    "7072": "make",
    "7073": " Show",
    "7074": " browser",
    "7075": " favorite",
    "7076": " career",
    "7077": " happened",
    "7078": "(char",
    "7079": " recommend",
    "7080": " liter",
    "7081": ".filter",
    "7082": "grade",
    "7083": " \u00a3",
    "7084": "Phone",
    "7085": "oms",
    "7086": " named",
    "7087": "-label",
    "7088": "ipo",
    "7089": " Other",
    "7090": " panel",
    "7091": " rock",
    "7092": "Scale",
    "7093": "\tassert",
    "7094": "\u0434",
    "7095": " trust",
    "7096": "front",
    "7097": " demon",
    "7098": "Ar",
    "7099": "Net",
    "7100": " economic",
    "7101": "footer",
    "7102": " race",
    "7103": "(node",
    "7104": " Option",
    "7105": "split",
    "7106": " physical",
    "7107": "ifest",
    "7108": " removed",
    "7109": ".http",
    "7110": ")),\n",
    "7111": " looked",
    "7112": "';",
    "7113": "ding",
    "7114": "gest",
    "7115": "aturday",
    "7116": "/licenses",
    "7117": "Price",
    "7118": " dro",
    "7119": " towards",
    "7120": " uns",
    "7121": " CL",
    "7122": "\tstatic",
    "7123": " rows",
    "7124": " define",
    "7125": ".replace",
    "7126": " father",
    "7127": " Design",
    "7128": "assign",
    "7129": "mut",
    "7130": "Device",
    "7131": "Did",
    "7132": "'))\n",
    "7133": "ometry",
    "7134": "ayload",
    "7135": " histor",
    "7136": " Param",
    "7137": " Boolean",
    "7138": " nature",
    "7139": " js",
    "7140": " nation",
    "7141": "ih",
    "7142": " discover",
    "7143": "sem",
    "7144": "Handle",
    "7145": "\tr",
    "7146": " Techn",
    "7147": " wall",
    "7148": "{$",
    "7149": "@property",
    "7150": " \"../",
    "7151": " exam",
    "7152": ".draw",
    "7153": "opping",
    "7154": " nearly",
    "7155": " cool",
    "7156": " independ",
    "7157": "RES",
    "7158": " handler",
    "7159": " Monday",
    "7160": " sun",
    "7161": "Styles",
    "7162": "ously",
    "7163": " \t",
    "7164": "vest",
    "7165": "Display",
    "7166": "(y",
    "7167": "atically",
    "7168": " predict",
    "7169": "ying",
    "7170": " sometimes",
    "7171": "\"]\n",
    "7172": " drink",
    "7173": " bul",
    "7174": "ifications",
    "7175": ".insert",
    "7176": ".reg",
    "7177": " tests",
    "7178": "Alignment",
    "7179": " alleg",
    "7180": " attribute",
    "7181": " Note",
    "7182": " myself",
    "7183": "arts",
    "7184": "Now",
    "7185": " interesting",
    "7186": "lients",
    "7187": " population",
    "7188": " California",
    "7189": "\"I",
    "7190": "b'\\xe5\\xb9'",
    "7191": " greater",
    "7192": "uesday",
    "7193": " thous",
    "7194": " costs",
    "7195": " launch",
    "7196": "\\Http",
    "7197": "ker",
    "7198": "band",
    "7199": " Play",
    "7200": " band",
    "7201": ".shape",
    "7202": "esome",
    "7203": "article",
    "7204": ".rf",
    "7205": " wer",
    "7206": "\u00e1s",
    "7207": "embers",
    "7208": "usr",
    "7209": "BA",
    "7210": "ican",
    "7211": "ett",
    "7212": "validate",
    "7213": "ulti",
    "7214": " immediately",
    "7215": "zer",
    "7216": " figure",
    "7217": "oes",
    "7218": "eller",
    "7219": "ircle",
    "7220": " Sign",
    "7221": ".db",
    "7222": " rank",
    "7223": "Bytes",
    "7224": " projects",
    "7225": "_rec",
    "7226": "ULAR",
    "7227": "API",
    "7228": " Line",
    "7229": "Port",
    "7230": " poll",
    "7231": " giving",
    "7232": "idence",
    "7233": "--\n",
    "7234": " plot",
    "7235": "icial",
    "7236": " warrant",
    "7237": "ITION",
    "7238": " Double",
    "7239": " billion",
    "7240": "gorithm",
    "7241": " equipment",
    "7242": "DATE",
    "7243": " @\"",
    "7244": "EE",
    "7245": " ple",
    "7246": "iation",
    "7247": " headers",
    "7248": " proced",
    "7249": ".ComponentModel",
    "7250": " Obama",
    "7251": " pa",
    "7252": " Best",
    "7253": "imately",
    "7254": ".getString",
    "7255": ".\\",
    "7256": "mploy",
    "7257": " raw",
    "7258": "_block",
    "7259": "undred",
    "7260": "\"},\n",
    "7261": "112",
    "7262": ".GroupLayout",
    "7263": " brought",
    "7264": "NSString",
    "7265": "throw",
    "7266": "created",
    "7267": ".New",
    "7268": "_view",
    "7269": "CP",
    "7270": "eps",
    "7271": "Op",
    "7272": " gratis",
    "7273": " '\"",
    "7274": " interview",
    "7275": "\"\"\"\n",
    "7276": " partial",
    "7277": " aria",
    "7278": "bing",
    "7279": "Author",
    "7280": "Book",
    "7281": " Pat",
    "7282": "uman",
    "7283": "Users",
    "7284": "plus",
    "7285": "193",
    "7286": " Direct",
    "7287": "venue",
    "7288": "alpha",
    "7289": "UCCESS",
    "7290": " Call",
    "7291": " );\r\n",
    "7292": "imated",
    "7293": " remain",
    "7294": " anti",
    "7295": " London",
    "7296": " safety",
    "7297": "POSE",
    "7298": "oles",
    "7299": "controller",
    "7300": "Byte",
    "7301": " Court",
    "7302": " Phil",
    "7303": " Associ",
    "7304": "ena",
    "7305": "b'\\xe5\\x90'",
    "7306": "_STR",
    "7307": "coin",
    "7308": "reshold",
    "7309": " batch",
    "7310": "_Click",
    "7311": "entication",
    "7312": ">';\n",
    "7313": "enty",
    "7314": " beginning",
    "7315": " zero",
    "7316": " Convert",
    "7317": " terr",
    "7318": " paid",
    "7319": " increased",
    "7320": "catch",
    "7321": "-size",
    "7322": "115",
    "7323": "activity",
    "7324": "equals",
    "7325": " queue",
    "7326": " \"'",
    "7327": " International",
    "7328": " f\u00fcr",
    "7329": "ursday",
    "7330": " scient",
    "7331": "allow",
    "7332": "axis",
    "7333": " appropri",
    "7334": "edge",
    "7335": " idx",
    "7336": "Success",
    "7337": "entifier",
    "7338": ":\\",
    "7339": "xis",
    "7340": " maximum",
    "7341": "arks",
    "7342": " birth",
    "7343": "(index",
    "7344": " maybe",
    "7345": ".py",
    "7346": "files",
    "7347": " limited",
    "7348": "_check",
    "7349": "look",
    "7350": "plies",
    "7351": " movement",
    "7352": "'].",
    "7353": " broad",
    "7354": " BE",
    "7355": " UnityEngine",
    "7356": ".cpp",
    "7357": " Every",
    "7358": "Admin",
    "7359": " fans",
    "7360": "pared",
    "7361": "\n    \n",
    "7362": " foreign",
    "7363": " pan",
    "7364": " tour",
    "7365": " Order",
    "7366": " moving",
    "7367": " auf",
    "7368": "Call",
    "7369": "cb",
    "7370": "\u015f",
    "7371": "ventory",
    "7372": " Sql",
    "7373": " fully",
    "7374": "ClickListener",
    "7375": "WORD",
    "7376": " announced",
    "7377": ")\r\n\r\n",
    "7378": " agreed",
    "7379": "rie",
    "7380": " earn",
    "7381": "_link",
    "7382": ".array",
    "7383": "(text",
    "7384": " materials",
    "7385": ",p",
    "7386": "ffff",
    "7387": "vg",
    "7388": " \u00a9",
    "7389": " unless",
    "7390": "ajax",
    "7391": "LOG",
    "7392": " sexual",
    "7393": " \\\"",
    "7394": "-time",
    "7395": " coach",
    "7396": " supported",
    "7397": " photos",
    "7398": "iform",
    "7399": ".Create",
    "7400": ")]",
    "7401": "rier",
    "7402": " dialog",
    "7403": "aver",
    "7404": "ige",
    "7405": ")+",
    "7406": "_idx",
    "7407": ":[",
    "7408": "_min",
    "7409": " Cong",
    "7410": " pressure",
    "7411": " teams",
    "7412": "Sign",
    "7413": "begin",
    "7414": "rian",
    "7415": "NESS",
    "7416": "LS",
    "7417": " improve",
    "7418": " Sunday",
    "7419": " definition",
    "7420": "iger",
    "7421": "rollers",
    "7422": " thinking",
    "7423": "Template",
    "7424": "-F",
    "7425": " emerg",
    "7426": "plates",
    "7427": " USA",
    "7428": ".setState",
    "7429": " Also",
    "7430": "rev",
    "7431": " enable",
    "7432": " CO",
    "7433": "PECT",
    "7434": " concept",
    "7435": ")-",
    "7436": " \u2022",
    "7437": " sets",
    "7438": " meaning",
    "7439": "emon",
    "7440": " Cons",
    "7441": "cmp",
    "7442": "eder",
    "7443": "anned",
    "7444": "icensed",
    "7445": " Super",
    "7446": " daily",
    "7447": " multi",
    "7448": "_u",
    "7449": " challeng",
    "7450": "_mode",
    "7451": " Promise",
    "7452": " strict",
    "7453": "jo",
    "7454": "inton",
    "7455": "(list",
    "7456": "Only",
    "7457": ">{",
    "7458": " vehicle",
    "7459": "b'\\xed\\x95'",
    "7460": " Player",
    "7461": "106",
    "7462": " Del",
    "7463": " pool",
    "7464": ".url",
    "7465": "nesday",
    "7466": "();\r\n\r\n",
    "7467": "900",
    "7468": " \");\n",
    "7469": "Local",
    "7470": ".\");\n",
    "7471": " organization",
    "7472": "render",
    "7473": " Application",
    "7474": " summer",
    "7475": "expected",
    "7476": "NA",
    "7477": " rap",
    "7478": "_obj",
    "7479": " surface",
    "7480": " PUR",
    "7481": " },\n\n",
    "7482": " variables",
    "7483": "(message",
    "7484": " opin",
    "7485": ".back",
    "7486": "\u0430\u043d",
    "7487": " workers",
    "7488": "vm",
    "7489": "Co",
    "7490": "ughter",
    "7491": " master",
    "7492": " \"\",",
    "7493": " stories",
    "7494": ".User",
    "7495": " celebr",
    "7496": "inese",
    "7497": "BS",
    "7498": " Command",
    "7499": "ashboard",
    "7500": " og",
    "7501": "kg",
    "7502": ".image",
    "7503": ".style",
    "7504": " steps",
    "7505": " Ben",
    "7506": "(args",
    "7507": "404",
    "7508": " Person",
    "7509": ",y",
    "7510": " officials",
    "7511": "|\n",
    "7512": " skills",
    "7513": "vc",
    "7514": " builder",
    "7515": " gar",
    "7516": "Account",
    "7517": " Auth",
    "7518": "b'\\xe7\\x94'",
    "7519": "'])\n",
    "7520": " AT",
    "7521": "nn",
    "7522": ".Int",
    "7523": "SSERT",
    "7524": " effective",
    "7525": "LETE",
    "7526": " tools",
    "7527": "ARD",
    "7528": " digital",
    "7529": "191",
    "7530": "Double",
    "7531": " Find",
    "7532": "RC",
    "7533": " inline",
    "7534": "/r",
    "7535": "ARAM",
    "7536": "ASK",
    "7537": " intent",
    "7538": "aight",
    "7539": "_addr",
    "7540": " requests",
    "7541": ".first",
    "7542": " debug",
    "7543": " spent",
    "7544": "()));\n",
    "7545": "\u015b",
    "7546": " princip",
    "7547": "Logger",
    "7548": "cludes",
    "7549": ".use",
    "7550": " surv",
    "7551": "media",
    "7552": " February",
    "7553": " Mac",
    "7554": " missing",
    "7555": " wife",
    "7556": " talking",
    "7557": " Make",
    "7558": " cart",
    "7559": " located",
    "7560": "Enc",
    "7561": "-a",
    "7562": "chron",
    "7563": " cards",
    "7564": " guy",
    "7565": " pers",
    "7566": " Yes",
    "7567": "atever",
    "7568": " Ang",
    "7569": "olar",
    "7570": " Even",
    "7571": " accur",
    "7572": " Power",
    "7573": " Gold",
    "7574": "clear",
    "7575": "Process",
    "7576": " records",
    "7577": " killed",
    "7578": ".clear",
    "7579": " WARRANTIES",
    "7580": " purpose",
    "7581": "panel",
    "7582": "JECT",
    "7583": "\u00eda",
    "7584": " exerc",
    "7585": "WS",
    "7586": "/L",
    "7587": ".exports",
    "7588": " ___",
    "7589": " sin",
    "7590": "Servlet",
    "7591": " d\u00e9",
    "7592": ".delete",
    "7593": "roke",
    "7594": "Sl",
    "7595": "ugh",
    "7596": "ears",
    "7597": " pointer",
    "7598": " hop",
    "7599": "allery",
    "7600": " obs",
    "7601": "covery",
    "7602": "\tchar",
    "7603": "\t\t\t\t\t\t\t\t\t\t",
    "7604": "\tdef",
    "7605": "ocity",
    "7606": "itchen",
    "7607": "ulations",
    "7608": " FIT",
    "7609": " ).",
    "7610": "straints",
    "7611": "vention",
    "7612": " requires",
    "7613": " Oper",
    "7614": "ME",
    "7615": "OUNT",
    "7616": "allet",
    "7617": " norm",
    "7618": "IRE",
    "7619": "exas",
    "7620": " programs",
    "7621": " weak",
    "7622": "'.$",
    "7623": "uing",
    "7624": "\t       ",
    "7625": " mil",
    "7626": " firm",
    "7627": "initely",
    "7628": "_VALUE",
    "7629": "apse",
    "7630": "atisf",
    "7631": " demand",
    "7632": "_mod",
    "7633": " described",
    "7634": " places",
    "7635": "VID",
    "7636": " alone",
    "7637": " export",
    "7638": " vec",
    "7639": " Max",
    "7640": " activities",
    "7641": "ictures",
    "7642": "gener",
    "7643": " ma",
    "7644": "b'\\x82\\xac'",
    "7645": " expression",
    "7646": "Callback",
    "7647": "_content",
    "7648": " Most",
    "7649": " testing",
    "7650": "EC",
    "7651": "CHANT",
    "7652": " adjust",
    "7653": ".Threading",
    "7654": "(ctx",
    "7655": " agree",
    "7656": "ighest",
    "7657": " ui",
    "7658": " Law",
    "7659": ".Y",
    "7660": "><?",
    "7661": " pod",
    "7662": "-lg",
    "7663": "\u201d\n\n",
    "7664": " describe",
    "7665": " European",
    "7666": "-sh",
    "7667": " PURPOSE",
    "7668": "ORY",
    "7669": " convers",
    "7670": " Illuminate",
    "7671": " Av",
    "7672": "(ch",
    "7673": "?\"",
    "7674": "chen",
    "7675": "ima",
    "7676": "Document",
    "7677": " operations",
    "7678": "win",
    "7679": "\tfunction",
    "7680": ".Image",
    "7681": " scen",
    "7682": "/h",
    "7683": " SC",
    "7684": " explo",
    "7685": ":%",
    "7686": "/**\r\n",
    "7687": "NAME",
    "7688": "b'\\xe6\\x88'",
    "7689": "(var",
    "7690": " director",
    "7691": "ONG",
    "7692": " yield",
    "7693": " feet",
    "7694": " Search",
    "7695": " Il",
    "7696": " restaur",
    "7697": "duc",
    "7698": " integer",
    "7699": "107",
    "7700": " '';\n",
    "7701": " highly",
    "7702": "checked",
    "7703": " PARTIC",
    "7704": "ERCHANT",
    "7705": "\uff09",
    "7706": " optim",
    "7707": "Queue",
    "7708": " LI",
    "7709": "itation",
    "7710": " transport",
    "7711": "ission",
    "7712": "fill",
    "7713": "usion",
    "7714": "                              ",
    "7715": "\tbool",
    "7716": "-th",
    "7717": "upt",
    "7718": " essential",
    "7719": "anted",
    "7720": " benefits",
    "7721": "\tS",
    "7722": "';\r\n",
    "7723": "iki",
    "7724": " girls",
    "7725": "iced",
    "7726": "buffer",
    "7727": "]+",
    "7728": " socket",
    "7729": " prices",
    "7730": " Fre",
    "7731": " sat",
    "7732": " wood",
    "7733": "MenuItem",
    "7734": "ARG",
    "7735": " Admin",
    "7736": "OWN",
    "7737": "dk",
    "7738": " reset",
    "7739": " forms",
    "7740": " \u0438",
    "7741": "b'\\xe6\\x96'",
    "7742": " Tuesday",
    "7743": "109",
    "7744": " Initialized",
    "7745": "_train",
    "7746": "orary",
    "7747": "ategor",
    "7748": " dt",
    "7749": "Total",
    "7750": "construct",
    "7751": "ilies",
    "7752": " guys",
    "7753": "\u0435\u0440",
    "7754": " instruction",
    "7755": "010",
    "7756": "yled",
    "7757": " internet",
    "7758": "etadata",
    "7759": "ady",
    "7760": "faces",
    "7761": "jection",
    "7762": " Jack",
    "7763": " rect",
    "7764": "[-",
    "7765": " Leg",
    "7766": " devices",
    "7767": "OC",
    "7768": " *\r\n",
    "7769": "oration",
    "7770": "ertain",
    "7771": " guard",
    "7772": "ostream",
    "7773": " enum",
    "7774": ".layout",
    "7775": " \";\n",
    "7776": "voke",
    "7777": " Ok",
    "7778": "Home",
    "7779": "(tr",
    "7780": "ETH",
    "7781": " delay",
    "7782": " purchase",
    "7783": "dc",
    "7784": " aren",
    "7785": "_once",
    "7786": "\t\t\t\t\n",
    "7787": "ror",
    "7788": "draw",
    "7789": ".run",
    "7790": "(model",
    "7791": "Timeout",
    "7792": "lik",
    "7793": " Arg",
    "7794": ".en",
    "7795": " fish",
    "7796": "cpy",
    "7797": "_fe",
    "7798": "ERCHANTABILITY",
    "7799": "(X",
    "7800": "_output",
    "7801": "??",
    "7802": " jo",
    "7803": "andard",
    "7804": " doll",
    "7805": "errors",
    "7806": "_base",
    "7807": " PARTICULAR",
    "7808": " leader",
    "7809": " compar",
    "7810": " doub",
    "7811": " Vis",
    "7812": "StackTrace",
    "7813": "-C",
    "7814": " Stud",
    "7815": "stitute",
    "7816": "More",
    "7817": " Description",
    "7818": "WARE",
    "7819": "ads",
    "7820": " \u043a",
    "7821": "bind",
    "7822": "=self",
    "7823": "employ",
    "7824": "[n",
    "7825": ".all",
    "7826": "-B",
    "7827": "&&",
    "7828": "alm",
    "7829": " culture",
    "7830": "house",
    "7831": " suffer",
    "7832": " '%",
    "7833": " straight",
    "7834": " Star",
    "7835": "udo",
    "7836": " ded",
    "7837": " COM",
    "7838": " confirm",
    "7839": " Good",
    "7840": ".sc",
    "7841": "________________",
    "7842": "DR",
    "7843": "Configuration",
    "7844": "DateTime",
    "7845": " advert",
    "7846": " couldn",
    "7847": "async",
    "7848": "stack",
    "7849": "')\r\n",
    "7850": "Kit",
    "7851": " hous",
    "7852": " mechan",
    "7853": "rate",
    "7854": "204",
    "7855": " audio",
    "7856": "\tcout",
    "7857": "cores",
    "7858": " spot",
    "7859": " increasing",
    "7860": " ##",
    "7861": ")))",
    "7862": "points",
    "7863": " compared",
    "7864": "lig",
    "7865": " behavior",
    "7866": " BY",
    "7867": " Att",
    "7868": "craft",
    "7869": "headers",
    "7870": "ete",
    "7871": "endregion",
    "7872": " detail",
    "7873": "ULE",
    "7874": " Common",
    "7875": "\tprotected",
    "7876": "ston",
    "7877": " FITNESS",
    "7878": " fresh",
    "7879": "\">\n\n",
    "7880": ".example",
    "7881": "berg",
    "7882": " moved",
    "7883": "\te",
    "7884": " Saturday",
    "7885": " payload",
    "7886": "\u0107",
    "7887": "):\n\n",
    "7888": " bey",
    "7889": "urer",
    "7890": "<script",
    "7891": " symbol",
    "7892": " assum",
    "7893": " pul",
    "7894": "Effect",
    "7895": " hundred",
    "7896": "Tool",
    "7897": "aked",
    "7898": "connection",
    "7899": " voice",
    "7900": " pd",
    "7901": " transaction",
    "7902": " links",
    "7903": "Err",
    "7904": " Indian",
    "7905": "TC",
    "7906": "atalog",
    "7907": "ni",
    "7908": "sign",
    "7909": "<<\"",
    "7910": "ji",
    "7911": "ya",
    "7912": " demonstr",
    "7913": "ulated",
    "7914": ".St",
    "7915": " instit",
    "7916": " boost",
    "7917": " cells",
    "7918": "olic",
    "7919": ".Pro",
    "7920": ":</",
    "7921": "EventListener",
    "7922": "ifying",
    "7923": " Di",
    "7924": "orrow",
    "7925": ".execute",
    "7926": " college",
    "7927": "Your",
    "7928": " largest",
    "7929": ".dis",
    "7930": " qui",
    "7931": " individuals",
    "7932": "_buffer",
    "7933": " ng",
    "7934": "SA",
    "7935": " Control",
    "7936": " sing",
    "7937": " suit",
    "7938": "    \t",
    "7939": "SG",
    "7940": " jump",
    "7941": " smart",
    "7942": "oma",
    "7943": " Exp",
    "7944": " '-",
    "7945": " assist",
    "7946": " successfully",
    "7947": "sys",
    "7948": " Cre",
    "7949": "_ref",
    "7950": " Thursday",
    "7951": " bur",
    "7952": " \u0434",
    "7953": " beyond",
    "7954": " nodes",
    "7955": "Details",
    "7956": "inct",
    "7957": " James",
    "7958": " affect",
    "7959": "exception",
    "7960": " typeof",
    "7961": "(\r\n",
    "7962": "-se",
    "7963": " fetch",
    "7964": "`,",
    "7965": " crusher",
    "7966": "}.",
    "7967": " BO",
    "7968": "Show",
    "7969": " rates",
    "7970": " bon",
    "7971": "-icon",
    "7972": " Media",
    "7973": "RESS",
    "7974": " Valid",
    "7975": "\u043e\u043b",
    "7976": " fuck",
    "7977": "acks",
    "7978": " studies",
    "7979": "Me",
    "7980": " owners",
    "7981": "}else",
    "7982": " growing",
    "7983": "Variable",
    "7984": " Bel",
    "7985": ".random",
    "7986": "vement",
    "7987": "onym",
    "7988": "(F",
    "7989": " FALSE",
    "7990": " torch",
    "7991": "(row",
    "7992": "igo",
    "7993": "structure",
    "7994": "121",
    "7995": " certainly",
    "7996": "Dep",
    "7997": " Green",
    "7998": "question",
    "7999": " adding",
    "8000": " Develop",
    "8001": "_def",
    "8002": " mach",
    "8003": "=%",
    "8004": "\t\t ",
    "8005": "conds",
    "8006": "Project",
    "8007": " reject",
    "8008": "b' \\xce'",
    "8009": " poor",
    "8010": " aware",
    "8011": "114",
    "8012": " Build",
    "8013": " British",
    "8014": " NE",
    "8015": " numer",
    "8016": "rees",
    "8017": "claim",
    "8018": " mock",
    "8019": " om",
    "8020": " scre",
    "8021": "OLD",
    "8022": ".pl",
    "8023": "eler",
    "8024": " correspond",
    "8025": "_HE",
    "8026": " binary",
    "8027": "116",
    "8028": "_order",
    "8029": " SQL",
    "8030": " advant",
    "8031": " prev",
    "8032": ".[",
    "8033": ".assertEqual",
    "8034": "plier",
    "8035": "arp",
    "8036": " closed",
    "8037": " encour",
    "8038": " QString",
    "8039": "aud",
    "8040": " developed",
    "8041": " permission",
    "8042": ".debug",
    "8043": "operator",
    "8044": " '\n",
    "8045": " sym",
    "8046": "atively",
    "8047": "\u00e9e",
    "8048": "-color",
    "8049": " GET",
    "8050": "ky",
    "8051": " although",
    "8052": "_request",
    "8053": "_element",
    "8054": "................",
    "8055": "_DATA",
    "8056": " amazing",
    "8057": " sb",
    "8058": " Default",
    "8059": "Events",
    "8060": " failure",
    "8061": "acle",
    "8062": "Properties",
    "8063": " dream",
    "8064": " distr",
    "8065": " au",
    "8066": " generated",
    "8067": "b'\\xe6\\x95'",
    "8068": " Team",
    "8069": "USE",
    "8070": " income",
    "8071": " eye",
    "8072": "_not",
    "8073": "\"],",
    "8074": "_form",
    "8075": "Support",
    "8076": "orders",
    "8077": ".Print",
    "8078": "ville",
    "8079": " Wednesday",
    "8080": "olver",
    "8081": " oppos",
    "8082": "isation",
    "8083": "ola",
    "8084": "Close",
    "8085": "<p",
    "8086": "_width",
    "8087": "Invalid",
    "8088": "xb",
    "8089": " strugg",
    "8090": "_action",
    "8091": " txt",
    "8092": " Path",
    "8093": "alar",
    "8094": " MERCHANTABILITY",
    "8095": "service",
    "8096": " Michael",
    "8097": "ableView",
    "8098": "Debug",
    "8099": "okes",
    "8100": "She",
    "8101": " guess",
    "8102": " Java",
    "8103": "_PATH",
    "8104": " particularly",
    "8105": " II",
    "8106": " domain",
    "8107": "\u5e74",
    "8108": " reduce",
    "8109": "-left",
    "8110": "real",
    "8111": " appears",
    "8112": " como",
    "8113": " Unit",
    "8114": " Govern",
    "8115": "ali",
    "8116": "allel",
    "8117": " Jew",
    "8118": "_I",
    "8119": " cos",
    "8120": ".color",
    "8121": " Global",
    "8122": " tele",
    "8123": "ben",
    "8124": "_trans",
    "8125": " reasons",
    "8126": " emb",
    "8127": "ensity",
    "8128": "lines",
    "8129": "omin",
    "8130": "Screen",
    "8131": "\u0430\u0442",
    "8132": "pects",
    "8133": "clip",
    "8134": "foo",
    "8135": "rent",
    "8136": " af",
    "8137": " danger",
    "8138": "iling",
    "8139": "Names",
    "8140": "Our",
    "8141": " distribution",
    "8142": "While",
    "8143": "SL",
    "8144": "Write",
    "8145": " goto",
    "8146": " colors",
    "8147": " powerful",
    "8148": "kin",
    "8149": " depth",
    "8150": "ercial",
    "8151": " Congress",
    "8152": " Market",
    "8153": "Db",
    "8154": "under",
    "8155": " Last",
    "8156": "\u00df",
    "8157": "greg",
    "8158": " posts",
    "8159": "_URL",
    "8160": "otos",
    "8161": "Don",
    "8162": " micro",
    "8163": " arrest",
    "8164": "\u043f",
    "8165": " (@",
    "8166": " Hot",
    "8167": " Index",
    "8168": ";&",
    "8169": "#!",
    "8170": " Nor",
    "8171": " Cap",
    "8172": "-(",
    "8173": " interested",
    "8174": "pear",
    "8175": " rent",
    "8176": " album",
    "8177": "olicy",
    "8178": ".lang",
    "8179": ".trans",
    "8180": ".format",
    "8181": " {\r\n\r\n",
    "8182": "phere",
    "8183": " axis",
    "8184": " Business",
    "8185": "ersistence",
    "8186": "urr",
    "8187": " minimum",
    "8188": "endor",
    "8189": " SD",
    "8190": "113",
    "8191": " Internet",
    "8192": "b'\\xe5\\xa4'",
    "8193": "Exp",
    "8194": "iverse",
    "8195": "MM",
    "8196": " obvious",
    "8197": " basis",
    "8198": " science",
    "8199": " budget",
    "8200": "izations",
    "8201": "PA",
    "8202": " flags",
    "8203": "pret",
    "8204": "LOCK",
    "8205": " variety",
    "8206": " truth",
    "8207": "dt",
    "8208": " gone",
    "8209": " battle",
    "8210": "<std",
    "8211": " Sil",
    "8212": "rf",
    "8213": "uda",
    "8214": " erot",
    "8215": " Cam",
    "8216": " station",
    "8217": " '</",
    "8218": "cheme",
    "8219": " Sun",
    "8220": " finished",
    "8221": " shop",
    "8222": " Kore",
    "8223": " eight",
    "8224": "_REG",
    "8225": "ND",
    "8226": ">,",
    "8227": "\"><?",
    "8228": "(num",
    "8229": "\tinline",
    "8230": "Transaction",
    "8231": ".On",
    "8232": " mail",
    "8233": "rey",
    "8234": "results",
    "8235": " nav",
    "8236": "IMIT",
    "8237": "_ids",
    "8238": "Make",
    "8239": "b'\\xe5\\x8a'",
    "8240": "Modal",
    "8241": " LOG",
    "8242": " Sur",
    "8243": " instanceof",
    "8244": " overall",
    "8245": " Information",
    "8246": " construction",
    "8247": "_FILE",
    "8248": "but",
    "8249": " medic",
    "8250": " duration",
    "8251": "itness",
    "8252": "agent",
    "8253": "AV",
    "8254": " seven",
    "8255": "olf",
    "8256": " }}\n",
    "8257": "\"],\n",
    "8258": "170",
    "8259": "122",
    "8260": " calling",
    "8261": " ans",
    "8262": "throws",
    "8263": "orizontal",
    "8264": " useState",
    "8265": ".fl",
    "8266": " Status",
    "8267": " Online",
    "8268": "RR",
    "8269": " Rich",
    "8270": " Hill",
    "8271": " brain",
    "8272": " followed",
    "8273": "240",
    "8274": "emic",
    "8275": " slight",
    "8276": " insurance",
    "8277": ".Array",
    "8278": " abstract",
    "8279": " Sum",
    "8280": "redirect",
    "8281": "owner",
    "8282": "(msg",
    "8283": " Clinton",
    "8284": "Non",
    "8285": "\tex",
    "8286": " volume",
    "8287": " EventArgs",
    "8288": "-L",
    "8289": " Dim",
    "8290": " Mart",
    "8291": " cursor",
    "8292": " implementation",
    "8293": "urred",
    "8294": " larger",
    "8295": ");\n\n\n",
    "8296": "'+",
    "8297": ".transform",
    "8298": " upload",
    "8299": "                                                       ",
    "8300": "Draw",
    "8301": "nel",
    "8302": "\tfloat",
    "8303": "qrt",
    "8304": " Network",
    "8305": " tit",
    "8306": "Axis",
    "8307": ".android",
    "8308": " completed",
    "8309": " mur",
    "8310": " columns",
    "8311": "xc",
    "8312": " supply",
    "8313": "iminal",
    "8314": " spr",
    "8315": "================================================================",
    "8316": " units",
    "8317": "(u",
    "8318": "mi",
    "8319": "replace",
    "8320": "[key",
    "8321": "b'\\xe0\\xb9'",
    "8322": "antic",
    "8323": " payment",
    "8324": ",B",
    "8325": " Apple",
    "8326": "gin",
    "8327": "Required",
    "8328": "#+",
    "8329": "lands",
    "8330": " squ",
    "8331": " factor",
    "8332": "dec",
    "8333": " strength",
    "8334": " boy",
    "8335": " balance",
    "8336": " sources",
    "8337": "screen",
    "8338": "-top",
    "8339": " Amazon",
    "8340": " hidden",
    "8341": "\u0435\u0442",
    "8342": "_client",
    "8343": " eat",
    "8344": ".display",
    "8345": " \u00bb",
    "8346": " trigger",
    "8347": "anager",
    "8348": " tro",
    "8349": " claims",
    "8350": "ford",
    "8351": " Company",
    "8352": " gift",
    "8353": ",:",
    "8354": "_app",
    "8355": "handle",
    "8356": " produce",
    "8357": "/lib",
    "8358": "512",
    "8359": " -*",
    "8360": "\tset",
    "8361": "'];",
    "8362": "arc",
    "8363": "ander",
    "8364": " Engine",
    "8365": " attributes",
    "8366": "task",
    "8367": "<=",
    "8368": "(N",
    "8369": " warm",
    "8370": "which",
    "8371": " Fore",
    "8372": "agnost",
    "8373": "mys",
    "8374": " tal",
    "8375": " Sal",
    "8376": "gi",
    "8377": " Print",
    "8378": " TRUE",
    "8379": " \u043e",
    "8380": ".UI",
    "8381": " flash",
    "8382": "roperty",
    "8383": ".location",
    "8384": " Mill",
    "8385": "bi",
    "8386": "contr",
    "8387": ".request",
    "8388": " Sam",
    "8389": " negative",
    "8390": "kit",
    "8391": " sett",
    "8392": ".printStackTrace",
    "8393": "abe",
    "8394": "\ti",
    "8395": " burn",
    "8396": " society",
    "8397": "Cache",
    "8398": " Security",
    "8399": ".models",
    "8400": " WARRANTY",
    "8401": "_up",
    "8402": "ceive",
    "8403": " clients",
    "8404": ".Tr",
    "8405": " providing",
    "8406": " rout",
    "8407": "material",
    "8408": " ||\n",
    "8409": " Ser",
    "8410": " Office",
    "8411": "FTWARE",
    "8412": " '$",
    "8413": " foc",
    "8414": " excell",
    "8415": " cat",
    "8416": "normal",
    "8417": " determine",
    "8418": "\tuint",
    "8419": "Pane",
    "8420": " employees",
    "8421": " Texas",
    "8422": " traff",
    "8423": " Report",
    "8424": "anta",
    "8425": " Box",
    "8426": " django",
    "8427": " partner",
    "8428": "EB",
    "8429": "LINE",
    "8430": " feeling",
    "8431": " civil",
    "8432": "(float",
    "8433": "Sql",
    "8434": " wouldn",
    "8435": ".init",
    "8436": ".left",
    "8437": "-v",
    "8438": "_level",
    "8439": "'}",
    "8440": "AF",
    "8441": " loading",
    "8442": " Only",
    "8443": " cookies",
    "8444": " Gl",
    "8445": "CO",
    "8446": " strategy",
    "8447": "('./",
    "8448": " ship",
    "8449": "poses",
    "8450": " signal",
    "8451": " alpha",
    "8452": ".pop",
    "8453": "Radius",
    "8454": " replace",
    "8455": "_DIR",
    "8456": "counter",
    "8457": "bservable",
    "8458": "ela",
    "8459": "Weight",
    "8460": "hash",
    "8461": "bose",
    "8462": "fx",
    "8463": " Email",
    "8464": " refer",
    "8465": "localhost",
    "8466": "_RO",
    "8467": "iques",
    "8468": "Step",
    "8469": " ahead",
    "8470": "(View",
    "8471": " Services",
    "8472": " Json",
    "8473": "essor",
    "8474": " pun",
    "8475": " appropriate",
    "8476": "akers",
    "8477": "osen",
    "8478": "posing",
    "8479": " agent",
    "8480": "fc",
    "8481": " transfer",
    "8482": " invalid",
    "8483": " Research",
    "8484": "Vertex",
    "8485": " gay",
    "8486": " journal",
    "8487": "[x",
    "8488": " \"\",\n",
    "8489": " Well",
    "8490": ".Tasks",
    "8491": "Spec",
    "8492": " ol",
    "8493": " spend",
    "8494": " Australia",
    "8495": "Match",
    "8496": ".junit",
    "8497": "                                     ",
    "8498": " MAX",
    "8499": "izable",
    "8500": "clusive",
    "8501": "_valid",
    "8502": " quarter",
    "8503": "yan",
    "8504": "005",
    "8505": " Edit",
    "8506": "arden",
    "8507": "=new",
    "8508": " frag",
    "8509": "Bit",
    "8510": "zi",
    "8511": "aine",
    "8512": "udd",
    "8513": ".Object",
    "8514": "debug",
    "8515": " cash",
    "8516": "_IM",
    "8517": " een",
    "8518": " commercial",
    "8519": " Video",
    "8520": "loader",
    "8521": " fixed",
    "8522": " applications",
    "8523": " _,",
    "8524": " Russia",
    "8525": "itect",
    "8526": "_(",
    "8527": " Block",
    "8528": " san",
    "8529": " Tom",
    "8530": " perhaps",
    "8531": " sig",
    "8532": "levant",
    "8533": " corpor",
    "8534": "ataset",
    "8535": "ronic",
    "8536": "xe",
    "8537": " eth",
    "8538": "Some",
    "8539": "pop",
    "8540": "_OK",
    "8541": " tend",
    "8542": ".Res",
    "8543": "_and",
    "8544": " reviews",
    "8545": " wild",
    "8546": "117",
    "8547": " degree",
    "8548": ".O",
    "8549": ".objects",
    "8550": "_args",
    "8551": "nil",
    "8552": " disabled",
    "8553": "Parent",
    "8554": " notes",
    "8555": " \"\"\n",
    "8556": "(state",
    "8557": "istrict",
    "8558": " logging",
    "8559": ".IO",
    "8560": " Mal",
    "8561": "DM",
    "8562": " xml",
    "8563": " Robert",
    "8564": "elen",
    "8565": "layout",
    "8566": "fol",
    "8567": "']))",
    "8568": ",b",
    "8569": " Jer",
    "8570": "filename",
    "8571": " fan",
    "8572": " Custom",
    "8573": "=\"\"",
    "8574": " Die",
    "8575": "Bundle",
    "8576": ".utils",
    "8577": " trip",
    "8578": "MB",
    "8579": " soft",
    "8580": "_MODE",
    "8581": " applicable",
    "8582": " upper",
    "8583": "ERVER",
    "8584": "_al",
    "8585": "_LOG",
    "8586": "Here",
    "8587": "wp",
    "8588": " Server",
    "8589": " Client",
    "8590": " chem",
    "8591": "Scroll",
    "8592": " highest",
    "8593": " Select",
    "8594": " \"@",
    "8595": " Why",
    "8596": "Sec",
    "8597": "heel",
    "8598": "Operation",
    "8599": " connected",
    "8600": "irmed",
    "8601": " citiz",
    "8602": " Che",
    "8603": " forces",
    "8604": " www",
    "8605": "Root",
    "8606": "ANCE",
    "8607": "Many",
    "8608": "icip",
    "8609": "rgan",
    "8610": "220",
    "8611": " Tor",
    "8612": " Press",
    "8613": " Mor",
    "8614": "-line",
    "8615": "uled",
    "8616": ">\\",
    "8617": " thus",
    "8618": " Register",
    "8619": "hol",
    "8620": " Chinese",
    "8621": " posted",
    "8622": " magn",
    "8623": "abilities",
    "8624": " disease",
    "8625": " remains",
    "8626": " Prof",
    "8627": "-form",
    "8628": " cin",
    "8629": "organ",
    "8630": "icate",
    "8631": " stress",
    "8632": "]*",
    "8633": " ----------------------------------------------------------------",
    "8634": "_context",
    "8635": "orry",
    "8636": " died",
    "8637": "mat",
    "8638": " starts",
    "8639": ".Message",
    "8640": " runs",
    "8641": " guide",
    "8642": " warranty",
    "8643": "entials",
    "8644": "dict",
    "8645": " Size",
    "8646": "uler",
    "8647": " responsible",
    "8648": "_SET",
    "8649": " containing",
    "8650": " Price",
    "8651": "||",
    "8652": "350",
    "8653": "FS",
    "8654": " emp",
    "8655": "_button",
    "8656": "(uint",
    "8657": " suff",
    "8658": "pth",
    "8659": " definitely",
    "8660": "pute",
    "8661": " marketing",
    "8662": " WH",
    "8663": " Sie",
    "8664": "+=",
    "8665": "OLOR",
    "8666": " consult",
    "8667": " signed",
    "8668": " sequence",
    "8669": "lee",
    "8670": " requirements",
    "8671": "hy",
    "8672": "Express",
    "8673": "MT",
    "8674": "sey",
    "8675": " ult",
    "8676": "b'\\xe5\\xae'",
    "8677": "elligence",
    "8678": " analy",
    "8679": " dress",
    "8680": "engine",
    "8681": " Great",
    "8682": " Android",
    "8683": " Alex",
    "8684": "mode",
    "8685": "Dictionary",
    "8686": ".Date",
    "8687": "b'\\xe4\\xbd'",
    "8688": "VICE",
    "8689": " families",
    "8690": " Russian",
    "8691": " Times",
    "8692": ".call",
    "8693": "$(",
    "8694": "Profile",
    "8695": " folder",
    "8696": "ches",
    "8697": " legis",
    "8698": "_row",
    "8699": "unes",
    "8700": "\u0644",
    "8701": " }).",
    "8702": "Assert",
    "8703": "agen",
    "8704": " Hand",
    "8705": "Iter",
    "8706": " biggest",
    "8707": "oreach",
    "8708": " polic",
    "8709": " permissions",
    "8710": " showed",
    "8711": " Element",
    "8712": " topic",
    "8713": "\u2014\u2014",
    "8714": "road",
    "8715": " Bank",
    "8716": "record",
    "8717": " partners",
    "8718": " Ref",
    "8719": "essions",
    "8720": " assess",
    "8721": "UST",
    "8722": " Party",
    "8723": "produ",
    "8724": "LC",
    "8725": " ul",
    "8726": ".form",
    "8727": "hide",
    "8728": "copy",
    "8729": "UTF",
    "8730": " SOFTWARE",
    "8731": "\r\n\r\n\r\n",
    "8732": " Lin",
    "8733": "una",
    "8734": "ugar",
    "8735": " administration",
    "8736": " opening",
    "8737": " scan",
    "8738": " continued",
    "8739": "component",
    "8740": ".sp",
    "8741": " happens",
    "8742": "ummy",
    "8743": " PR",
    "8744": ".File",
    "8745": " Download",
    "8746": "Loading",
    "8747": "di",
    "8748": " waiting",
    "8749": "_ADD",
    "8750": "Tab",
    "8751": ".querySelector",
    "8752": " economy",
    "8753": " French",
    "8754": "txt",
    "8755": " fant",
    "8756": "_;\n",
    "8757": "Holder",
    "8758": "SH",
    "8759": "004",
    "8760": " numpy",
    "8761": " street",
    "8762": " male",
    "8763": "\\Model",
    "8764": "anging",
    "8765": "333",
    "8766": " Bill",
    "8767": " previously",
    "8768": "BI",
    "8769": " Secret",
    "8770": " mist",
    "8771": " Field",
    "8772": "ups",
    "8773": " Process",
    "8774": " kept",
    "8775": " OT",
    "8776": " traditional",
    "8777": ".i",
    "8778": "amin",
    "8779": " helps",
    "8780": "Any",
    "8781": "origin",
    "8782": "ilters",
    "8783": "ju",
    "8784": "desc",
    "8785": " Account",
    "8786": " )\r\n",
    "8787": "ktop",
    "8788": "olly",
    "8789": " fs",
    "8790": "b' \\xea'",
    "8791": " ut",
    "8792": " central",
    "8793": "(test",
    "8794": ".An",
    "8795": " satisf",
    "8796": "GR",
    "8797": " Full",
    "8798": " heat",
    "8799": "iber",
    "8800": " onto",
    "8801": "mos",
    "8802": "Schema",
    "8803": " factory",
    "8804": "\".$",
    "8805": "aws",
    "8806": "Statement",
    "8807": "(target",
    "8808": "\tnew",
    "8809": ".be",
    "8810": " guest",
    "8811": " mal",
    "8812": "ARY",
    "8813": " reached",
    "8814": " mouse",
    "8815": " challenge",
    "8816": "\tdouble",
    "8817": " Tem",
    "8818": " terror",
    "8819": " extract",
    "8820": "_TO",
    "8821": " separate",
    "8822": " mir",
    "8823": "help",
    "8824": " capacity",
    "8825": " Property",
    "8826": "kan",
    "8827": "_create",
    "8828": " Light",
    "8829": ".parent",
    "8830": " understanding",
    "8831": " easier",
    "8832": " |=",
    "8833": " enh",
    "8834": " fat",
    "8835": " protest",
    "8836": "amm",
    "8837": "_AT",
    "8838": "-of",
    "8839": "ils",
    "8840": " Oh",
    "8841": " psych",
    "8842": " $.",
    "8843": "inds",
    "8844": " relative",
    "8845": "shop",
    "8846": "short",
    "8847": " Sand",
    "8848": "210",
    "8849": "uestion",
    "8850": " fear",
    "8851": "/\n\n",
    "8852": ".context",
    "8853": " schools",
    "8854": " serve",
    "8855": "zone",
    "8856": "_db",
    "8857": " majority",
    "8858": "example",
    "8859": " lang",
    "8860": "\t  ",
    "8861": "Register",
    "8862": "endo",
    "8863": " processing",
    "8864": "_template",
    "8865": "-user",
    "8866": " eg",
    "8867": "COM",
    "8868": " Blue",
    "8869": "iro",
    "8870": " remote",
    "8871": " IT",
    "8872": "#!/",
    "8873": " redistrib",
    "8874": "124",
    "8875": "raz",
    "8876": " Since",
    "8877": " Tur",
    "8878": "135",
    "8879": "Background",
    "8880": "===",
    "8881": " reflect",
    "8882": " pros",
    "8883": "cmd",
    "8884": " whom",
    "8885": "Compat",
    "8886": " Are",
    "8887": "Identifier",
    "8888": " Thom",
    "8889": "_port",
    "8890": "gu",
    "8891": " monitor",
    "8892": "rm",
    "8893": " patient",
    "8894": "verter",
    "8895": " gain",
    "8896": "-ui",
    "8897": "Inst",
    "8898": " dies",
    "8899": "118",
    "8900": "Area",
    "8901": "_filter",
    "8902": " grat",
    "8903": " reality",
    "8904": "ordinate",
    "8905": "olved",
    "8906": "Contact",
    "8907": " compliance",
    "8908": "_or",
    "8909": " Var",
    "8910": "dl",
    "8911": " append",
    "8912": "GER",
    "8913": "(max",
    "8914": ".render",
    "8915": " dynamic",
    "8916": "ordinates",
    "8917": "_options",
    "8918": "_column",
    "8919": " batter",
    "8920": "space",
    "8921": "La",
    "8922": " Source",
    "8923": "/bin",
    "8924": " dos",
    "8925": " Board",
    "8926": " Thread",
    "8927": " AL",
    "8928": "(config",
    "8929": "144",
    "8930": " Mer",
    "8931": " miles",
    "8932": "_header",
    "8933": "ETHOD",
    "8934": "izz",
    "8935": " benefit",
    "8936": " integr",
    "8937": "(current",
    "8938": "ulo",
    "8939": ".default",
    "8940": " Div",
    "8941": " ton",
    "8942": "oth",
    "8943": "ervation",
    "8944": "edom",
    "8945": " baby",
    "8946": "ceived",
    "8947": ".top",
    "8948": "riority",
    "8949": " Local",
    "8950": "riage",
    "8951": " attacks",
    "8952": " hospital",
    "8953": "168",
    "8954": " female",
    "8955": " Login",
    "8956": " Flor",
    "8957": " chain",
    "8958": "ashion",
    "8959": "Texture",
    "8960": "Save",
    "8961": " farm",
    "8962": ".contains",
    "8963": ".Test",
    "8964": " knows",
    "8965": " generally",
    "8966": "ipeline",
    "8967": " meant",
    "8968": "encia",
    "8969": " nicht",
    "8970": " contents",
    "8971": "PM",
    "8972": "chedule",
    "8973": "(line",
    "8974": "CG",
    "8975": "job",
    "8976": " Real",
    "8977": "uer",
    "8978": "firm",
    "8979": "b' \\xd8'",
    "8980": "etro",
    "8981": "\"`\n",
    "8982": " speech",
    "8983": " thr",
    "8984": "foreach",
    "8985": " warn",
    "8986": "\tl",
    "8987": " heavy",
    "8988": "<li",
    "8989": "Ne",
    "8990": " investigation",
    "8991": "Math",
    "8992": "-title",
    "8993": " church",
    "8994": " despite",
    "8995": "chain",
    "8996": " whatever",
    "8997": "arian",
    "8998": "fn",
    "8999": " meta",
    "9000": "})\n\n",
    "9001": "UFF",
    "9002": " regarding",
    "9003": "_SUCCESS",
    "9004": "mes",
    "9005": " Intent",
    "9006": " resolve",
    "9007": "poss",
    "9008": "ira",
    "9009": "force",
    "9010": "oice",
    "9011": "\u00e2",
    "9012": " pm",
    "9013": " updates",
    "9014": "Arr",
    "9015": "b' \\xd1'",
    "9016": "testing",
    "9017": " toward",
    "9018": "ntax",
    "9019": "b'\\xeb\\x8b'",
    "9020": " listen",
    "9021": " goals",
    "9022": "InstanceState",
    "9023": "Dr",
    "9024": " rare",
    "9025": " trail",
    "9026": "Keys",
    "9027": "Cal",
    "9028": "Car",
    "9029": " People",
    "9030": "\tlocal",
    "9031": "classes",
    "9032": "Reference",
    "9033": ".forEach",
    "9034": "emb",
    "9035": "activ",
    "9036": " prim",
    "9037": "redict",
    "9038": " rad",
    "9039": "\u6570",
    "9040": ".Back",
    "9041": " spread",
    "9042": " clock",
    "9043": " vir",
    "9044": "editor",
    "9045": " efforts",
    "9046": " branch",
    "9047": " indust",
    "9048": " motor",
    "9049": " amb",
    "9050": " datetime",
    "9051": " rencont",
    "9052": " Christian",
    "9053": " Americans",
    "9054": "full",
    "9055": " fmt",
    "9056": ".main",
    "9057": " caused",
    "9058": "_update",
    "9059": " Content",
    "9060": "ATCH",
    "9061": " bath",
    "9062": " Each",
    "9063": " radio",
    "9064": "achment",
    "9065": "uzz",
    "9066": "Submit",
    "9067": " restrict",
    "9068": "abin",
    "9069": " Load",
    "9070": " extension",
    "9071": " essay",
    "9072": " hat",
    "9073": "aviour",
    "9074": "toBe",
    "9075": "\":[",
    "9076": " offered",
    "9077": " vill",
    "9078": "(double",
    "9079": "119",
    "9080": "\u65e5",
    "9081": "bc",
    "9082": "_free",
    "9083": " Miss",
    "9084": " Ber",
    "9085": "b' \\xe8'",
    "9086": " Like",
    "9087": " helped",
    "9088": ".getName",
    "9089": "_AL",
    "9090": " spirit",
    "9091": " Apache",
    "9092": "ws",
    "9093": " therefore",
    "9094": "(params",
    "9095": "_img",
    "9096": " peace",
    "9097": " incor",
    "9098": " EXPECT",
    "9099": " minor",
    "9100": "ipes",
    "9101": "\tdata",
    "9102": "selector",
    "9103": "city",
    "9104": "trie",
    "9105": ".base",
    "9106": "_frame",
    "9107": " opened",
    "9108": "/json",
    "9109": "LY",
    "9110": "nu",
    "9111": ".De",
    "9112": "tf",
    "9113": "margin",
    "9114": ".Parse",
    "9115": " pi",
    "9116": " eq",
    "9117": "bd",
    "9118": "Fields",
    "9119": " Tree",
    "9120": " ban",
    "9121": "istan",
    "9122": "\n        \n",
    "9123": "\tgl",
    "9124": " produced",
    "9125": "system",
    "9126": "Mark",
    "9127": "_hash",
    "9128": " bg",
    "9129": " constit",
    "9130": " League",
    "9131": " mission",
    "9132": "_format",
    "9133": "([\n",
    "9134": "clusion",
    "9135": "!\"",
    "9136": "\u0437",
    "9137": "break",
    "9138": "\tswitch",
    "9139": " ther",
    "9140": "Transform",
    "9141": " football",
    "9142": "-link",
    "9143": "route",
    "9144": ".auth",
    "9145": " bag",
    "9146": "overs",
    "9147": " enabled",
    "9148": " rac",
    "9149": "(I",
    "9150": "CR",
    "9151": "ancing",
    "9152": " managed",
    "9153": "_q",
    "9154": "NGTH",
    "9155": " mac",
    "9156": " Auto",
    "9157": "amente",
    "9158": " '',",
    "9159": ".Append",
    "9160": " pin",
    "9161": ".item",
    "9162": "acking",
    "9163": " occas",
    "9164": "person",
    "9165": " ti",
    "9166": ".Reg",
    "9167": " haven",
    "9168": " glass",
    "9169": " \"</",
    "9170": " Simple",
    "9171": "Print",
    "9172": " surround",
    "9173": "NO",
    "9174": "\u3002\n",
    "9175": "        \r\n",
    "9176": " Many",
    "9177": " \"_",
    "9178": " weekend",
    "9179": " somew",
    "9180": ".params",
    "9181": "small",
    "9182": "ATED",
    "9183": " plugin",
    "9184": "fields",
    "9185": " Initialize",
    "9186": "oon",
    "9187": "atile",
    "9188": "ye",
    "9189": " vous",
    "9190": "LAG",
    "9191": " older",
    "9192": " gam",
    "9193": " extremely",
    "9194": " het",
    "9195": "enum",
    "9196": " SET",
    "9197": "xff",
    "9198": " timer",
    "9199": "/index",
    "9200": " critical",
    "9201": "Rows",
    "9202": "_argument",
    "9203": " execute",
    "9204": " showing",
    "9205": ".xml",
    "9206": "-list",
    "9207": "Role",
    "9208": "typename",
    "9209": "_method",
    "9210": "that",
    "9211": "cher",
    "9212": "b' \\xe2\\x86'",
    "9213": "XT",
    "9214": " thousands",
    "9215": "\tn",
    "9216": " resp",
    "9217": "_price",
    "9218": "olut",
    "9219": "Ag",
    "9220": " Two",
    "9221": " becomes",
    "9222": " hus",
    "9223": ".Use",
    "9224": "theme",
    "9225": "urb",
    "9226": " /*\n",
    "9227": "erialize",
    "9228": "ARN",
    "9229": " lose",
    "9230": "Lower",
    "9231": " vel",
    "9232": " defense",
    "9233": "condition",
    "9234": " bes",
    "9235": " dry",
    "9236": " scroll",
    "9237": ".Show",
    "9238": "IEL",
    "9239": "\u043e\u0440",
    "9240": " Rest",
    "9241": "Where",
    "9242": "oods",
    "9243": " Jes",
    "9244": " wire",
    "9245": "_INFO",
    "9246": " strings",
    "9247": "gment",
    "9248": " matches",
    "9249": " electric",
    "9250": " excellent",
    "9251": " Council",
    "9252": "idade",
    "9253": " wx",
    "9254": "push",
    "9255": "_entry",
    "9256": " tasks",
    "9257": " rich",
    "9258": "sa",
    "9259": " Smith",
    "9260": "UNCTION",
    "9261": "Pointer",
    "9262": "pective",
    "9263": "131",
    "9264": " widget",
    "9265": "ista",
    "9266": " agency",
    "9267": " sich",
    "9268": "ologies",
    "9269": " trial",
    "9270": "alysis",
    "9271": ".check",
    "9272": "ARK",
    "9273": " onChange",
    "9274": "about",
    "9275": "',$",
    "9276": "(val",
    "9277": " placed",
    "9278": "_NO",
    "9279": " dan",
    "9280": ".equal",
    "9281": "\t     ",
    "9282": " weather",
    "9283": ".game",
    "9284": " destination",
    "9285": "_USER",
    "9286": "iece",
    "9287": " provider",
    "9288": ".last",
    "9289": "plex",
    "9290": "Note",
    "9291": "/js",
    "9292": " p\u00e5",
    "9293": " planning",
    "9294": "attribute",
    "9295": "PRO",
    "9296": "atches",
    "9297": " <-",
    "9298": " seeing",
    "9299": " cancel",
    "9300": "_ind",
    "9301": ".keys",
    "9302": " visual",
    "9303": " Current",
    "9304": " College",
    "9305": " Rock",
    "9306": " agreement",
    "9307": " Store",
    "9308": "oving",
    "9309": " corner",
    "9310": "ampions",
    "9311": "ISE",
    "9312": "Fin",
    "9313": " protection",
    "9314": " fi",
    "9315": "Play",
    "9316": "plugin",
    "9317": ")}",
    "9318": ".frame",
    "9319": "-z",
    "9320": " transition",
    "9321": "igin",
    "9322": " candidate",
    "9323": " Union",
    "9324": "_values",
    "9325": "(map",
    "9326": "cle",
    "9327": " trend",
    "9328": "wide",
    "9329": "aren",
    "9330": "Loc",
    "9331": "UTH",
    "9332": " Bay",
    "9333": " smaller",
    "9334": "ius",
    "9335": "141",
    "9336": "well",
    "9337": " criminal",
    "9338": " conflic",
    "9339": "bert",
    "9340": "_INT",
    "9341": " investment",
    "9342": "custom",
    "9343": " Session",
    "9344": "_write",
    "9345": "ania",
    "9346": " Mass",
    "9347": "_EQ",
    "9348": "_NOT",
    "9349": " violence",
    "9350": "Argument",
    "9351": "_email",
    "9352": " belong",
    "9353": "_function",
    "9354": " enemy",
    "9355": "ema",
    "9356": " Address",
    "9357": ".empty",
    "9358": " inner",
    "9359": " Contact",
    "9360": "Loader",
    "9361": "<input",
    "9362": " CA",
    "9363": "lot",
    "9364": " pictures",
    "9365": " Support",
    "9366": "_names",
    "9367": "188",
    "9368": "Layer",
    "9369": " Click",
    "9370": "Sum",
    "9371": "\u00e6",
    "9372": " Look",
    "9373": "uous",
    "9374": "Lib",
    "9375": "Flags",
    "9376": "team",
    "9377": "EP",
    "9378": "189",
    "9379": "hat",
    "9380": "override",
    "9381": "apsed",
    "9382": " labels",
    "9383": "quis",
    "9384": " Stream",
    "9385": "_device",
    "9386": " Commit",
    "9387": "(root",
    "9388": "\"}",
    "9389": ".isEmpty",
    "9390": "126",
    "9391": "\tM",
    "9392": " angle",
    "9393": " Because",
    "9394": "%%%%%%%%",
    "9395": " aim",
    "9396": " stick",
    "9397": "stmt",
    "9398": "agraph",
    "9399": "answer",
    "9400": " clin",
    "9401": " Isl",
    "9402": ".ext",
    "9403": " INT",
    "9404": " styles",
    "9405": " born",
    "9406": " scr",
    "9407": " expand",
    "9408": " raised",
    "9409": "TextBox",
    "9410": "ILL",
    "9411": "------------------------------------------------",
    "9412": "HTTP",
    "9413": "132",
    "9414": ">)",
    "9415": "_char",
    "9416": "resource",
    "9417": " episode",
    "9418": " '_",
    "9419": " Es",
    "9420": " Earth",
    "9421": "\u00a0\u00a0",
    "9422": "UPDATE",
    "9423": "133",
    "9424": " Sou",
    "9425": "uis",
    "9426": "types",
    "9427": " mas",
    "9428": " fav",
    "9429": " construct",
    "9430": "_rate",
    "9431": "eras",
    "9432": " |\n",
    "9433": "roperties",
    "9434": " external",
    "9435": " applied",
    "9436": " prefix",
    "9437": "oted",
    "9438": "lers",
    "9439": " cold",
    "9440": " SP",
    "9441": " Church",
    "9442": " Output",
    "9443": "losed",
    "9444": "b'\\xe7\\x9a'",
    "9445": "ificate",
    "9446": "operation",
    "9447": "herit",
    "9448": "xFF",
    "9449": ".env",
    "9450": "_err",
    "9451": "osh",
    "9452": "Direction",
    "9453": "Cancel",
    "9454": " Frank",
    "9455": " finding",
    "9456": ".)\n\n",
    "9457": " router",
    "9458": "\u30fb",
    "9459": "ses",
    "9460": " crow",
    "9461": "=='",
    "9462": " sand",
    "9463": " rid",
    "9464": "iture",
    "9465": " entre",
    "9466": " observ",
    "9467": " vac",
    "9468": "b'\\xf0\\x9f'",
    "9469": "-T",
    "9470": "Art",
    "9471": "night",
    "9472": ".search",
    "9473": " exchange",
    "9474": " district",
    "9475": ".os",
    "9476": " department",
    "9477": " documents",
    "9478": " century",
    "9479": " Next",
    "9480": "Host",
    "9481": " KIND",
    "9482": " susp",
    "9483": "-P",
    "9484": "rend",
    "9485": ".em",
    "9486": "uite",
    "9487": "isters",
    "9488": "(json",
    "9489": " Ann",
    "9490": "wt",
    "9491": "ati",
    "9492": " HTML",
    "9493": "when",
    "9494": "Directory",
    "9495": " shut",
    "9496": "<a",
    "9497": "edy",
    "9498": " healthy",
    "9499": " temperature",
    "9500": " Gen",
    "9501": " metal",
    "9502": " submit",
    "9503": " DO",
    "9504": " attract",
    "9505": " {};\n",
    "9506": " Word",
    "9507": " ll",
    "9508": " seemed",
    "9509": "ko",
    "9510": "IED",
    "9511": " labor",
    "9512": ".Context",
    "9513": " asset",
    "9514": "you",
    "9515": " cars",
    "9516": " Column",
    "9517": " r\u00e9",
    "9518": " square",
    "9519": " NSString",
    "9520": "\u201d,",
    "9521": "apes",
    "9522": "...\n",
    "9523": " thanks",
    "9524": "(props",
    "9525": " tick",
    "9526": " experiment",
    "9527": " prison",
    "9528": "tree",
    "9529": "-text",
    "9530": " IOException",
    "9531": "-width",
    "9532": "_STATUS",
    "9533": "fast",
    "9534": "-body",
    "9535": "-header",
    "9536": " guar",
[...]
